[PAD]
[unused1]
[unused2]
[unused3]
[unused4]
[unused5]
[unused6]
[unused7]
[unused8]
[unused9]
[unused10]
[unused11]
[unused12]
[unused13]
[unused14]
[unused15]
[unused16]
[unused17]
[unused18]
[unused19]
[unused20]
[unused21]
[unused22]
[unused23]
[unused24]
[unused25]
[unused26]
[unused27]
[unused28]
[unused29]
[unused30]
[unused31]
[unused32]
[unused33]
[unused34]
[unused35]
[unused36]
[unused37]
[unused38]
[unused39]
[unused40]
[unused41]
[unused42]
[unused43]
[unused44]
[unused45]
[unused46]
[unused47]
[unused48]
[unused49]
[unused50]
[unused51]
[unused52]
[unused53]
[unused54]
[unused55]
[unused56]
[unused57]
[unused58]
[unused59]
[unused60]
[unused61]
[unused62]
[unused63]
[unused64]
[unused65]
[unused66]
[unused67]
[unused68]
[unused69]
[unused70]
[unused71]
[unused72]
[unused73]
[unused74]
[unused75]
[unused76]
[unused77]
[unused78]
[unused79]
[unused80]
[unused81]
[unused82]
[unused83]
[unused84]
[unused85]
[unused86]
[unused87]
[unused88]
[unused89]
[unused90]
[unused91]
[unused92]
[unused93]
[unused94]
[unused95]
[unused96]
[unused97]
[unused98]
[unused99]
[UNK]
[CLS]
[SEP]
[MASK]
<S>
<T>
!
"
#
$
%
&
'
(
)
*
+
,
-
.
/
0
1
2
3
4
5
6
7
8
9
:
;
<
=
>
?
@
[
\
]
^
_
a
b
c
d
e
f
g
h
i
j
k
l
m
n
o
p
q
r
s
t
u
v
w
x
y
z
{
|
}
~
£
¤
¥
§
©
«
®
°
±
²
³
µ
·
¹
º
»
¼
×
ß
æ
÷
ø
đ
ŋ
ɔ
ə
ɡ
ʰ
ˇ
ˈ
ˊ
ˋ
ˍ
ː
˙
˚
ˢ
α
β
γ
δ
ε
η
θ
ι
κ
λ
μ
ν
ο
π
ρ
ς
σ
τ
υ
φ
χ
ψ
ω
а
б
в
г
д
е
ж
з
и
к
л
м
н
о
п
р
с
т
у
ф
х
ц
ч
ш
ы
ь
я
і
ا
ب
ة
ت
د
ر
س
ع
ل
م
ن
ه
و
ي
۩
ก
ง
น
ม
ย
ร
อ
า
เ
๑
་
ღ
ᄀ
ᄁ
ᄂ
ᄃ
ᄅ
ᄆ
ᄇ
ᄈ
ᄉ
ᄋ
ᄌ
ᄎ
ᄏ
ᄐ
ᄑ
ᄒ
ᅡ
ᅢ
ᅣ
ᅥ
ᅦ
ᅧ
ᅨ
ᅩ
ᅪ
ᅬ
ᅭ
ᅮ
ᅯ
ᅲ
ᅳ
ᅴ
ᅵ
ᆨ
ᆫ
ᆯ
ᆷ
ᆸ
ᆺ
ᆻ
ᆼ
ᗜ
ᵃ
ᵉ
ᵍ
ᵏ
ᵐ
ᵒ
ᵘ
‖
„
†
•
‥
‧

‰
′
″
‹
›
※
‿
⁄
ⁱ
⁺
ⁿ
₁
₂
₃
₄
€
℃
№
™
ⅰ
ⅱ
ⅲ
ⅳ
ⅴ
←
↑
→
↓
↔
↗
↘
⇒
∀
−
∕
∙
√
∞
∟
∠
∣
∥
∩
∮
∶
∼
∽
≈
≒
≡
≤
≥
≦
≧
≪
≫
⊙
⋅
⋈
⋯
⌒
①
②
③
④
⑤
⑥
⑦
⑧
⑨
⑩
⑴
⑵
⑶
⑷
⑸
⒈
⒉
⒊
⒋
ⓒ
ⓔ
ⓘ
─
━
│
┃
┅
┆
┊
┌
└
├
┣
═
║
╚
╞
╠
╭
╮
╯
╰
╱
╳
▂
▃
▅
▇
█
▉
▋
▌
▍
▎
■
□
▪
▫
▬
▲
△
▶
►
▼
▽
◆
◇
○
◎
●
◕
◠
◢
◤
☀
★
☆
☕
☞
☺
☼
♀
♂
♠
♡
♣
♥
♦
♪
♫
♬
✈
✔
✕
✖
✦
✨
✪
✰
✿
❀
❤
➜
➤
⦿
、
。
〃
々
〇
〈
〉
《
》
「
」
『
』
【
】
〓
〔
〕
〖
〗
〜
〝
〞
ぁ
あ
ぃ
い
う
ぇ
え
お
か
き
く
け
こ
さ
し
す
せ
そ
た
ち
っ
つ
て
と
な
に
ぬ
ね
の
は
ひ
ふ
へ
ほ
ま
み
む
め
も
ゃ
や
ゅ
ゆ
ょ
よ
ら
り
る
れ
ろ
わ
を
ん
゜
ゝ
ァ
ア
ィ
イ
ゥ
ウ
ェ
エ
ォ
オ
カ
キ
ク
ケ
コ
サ
シ
ス
セ
ソ
タ
チ
ッ
ツ
テ
ト
ナ
ニ
ヌ
ネ
ノ
ハ
ヒ
フ
ヘ
ホ
マ
ミ
ム
メ
モ
ャ
ヤ
ュ
ユ
ョ
ヨ
ラ
リ
ル
レ
ロ
ワ
ヲ
ン
ヶ
・
ー
ヽ
ㄅ
ㄆ
ㄇ
ㄉ
ㄋ
ㄌ
ㄍ
ㄎ
ㄏ
ㄒ
ㄚ
ㄛ
ㄞ
ㄟ
ㄢ
ㄤ
ㄥ
ㄧ
ㄨ
ㆍ
㈦
㊣
㎡
㗎
一
丁
七
万
丈
三
上
下
不
与
丐
丑
专
且
丕
世
丘
丙
业
丛
东
丝
丞
丟
両
丢
两
严
並
丧
丨
个
丫
中
丰
串
临
丶
丸
丹
为
主
丼
丽
举
丿
乂
乃
久
么
义
之
乌
乍
乎
乏
乐
乒
乓
乔
乖
乗
乘
乙
乜
九
乞
也
习
乡
书
乩
买
乱
乳
乾
亀
亂
了
予
争
事
二
于
亏
云
互
五
井
亘
亙
亚
些
亜
亞
亟
亡
亢
交
亥
亦
产
亨
亩
享
京
亭
亮
亲
亳
亵
人
亿
什
仁
仃
仄
仅
仆
仇
今
介
仍
从
仏
仑
仓
仔
仕
他
仗
付
仙
仝
仞
仟
代
令
以
仨
仪
们
仮
仰
仲
件
价
任
份
仿
企
伉
伊
伍
伎
伏
伐
休
伕
众
优
伙
会
伝
伞
伟
传
伢
伤
伦
伪
伫
伯
估
伴
伶
伸
伺
似
伽
佃
但
佇
佈
位
低
住
佐
佑
体
佔
何
佗
佘
余
佚
佛
作
佝
佞
佟
你
佢
佣
佤
佥
佩
佬
佯
佰
佳
併
佶
佻
佼
使
侃
侄
來
侈
例
侍
侏
侑
侖
侗
供
依
侠
価
侣
侥
侦
侧
侨
侬
侮
侯
侵
侶
侷
便
係
促
俄
俊
俎
俏
俐
俑
俗
俘
俚
保
俞
俟
俠
信
俨
俩
俪
俬
俭
修
俯
俱
俳
俸
俺
俾
倆
倉
個
倌
倍
倏
們
倒
倔
倖
倘
候
倚
倜
借
倡
値
倦
倩
倪
倫
倬
倭
倶
债
值
倾
偃
假
偈
偉
偌
偎
偏
偕
做
停
健
側
偵
偶
偷
偻
偽
偿
傀
傅
傍
傑
傘
備
傚
傢
傣
傥
储
傩
催
傭
傲
傳
債
傷
傻
傾
僅
働
像
僑
僕
僖
僚
僥
僧
僭
僮
僱
僵
價
僻
儀
儂
億
儆
儉
儋
儒
儕
儘
償
儡
優
儲
儷
儼
儿
兀
允
元
兄
充
兆
兇
先
光
克
兌
免
児
兑
兒
兔
兖
党
兜
兢
入
內
全
兩
八
公
六
兮
兰
共
兲
关
兴
兵
其
具
典
兹
养
兼
兽
冀
内
円
冇
冈
冉
冊
册
再
冏
冒
冕
冗
写
军
农
冠
冢
冤
冥
冨
冪
冬
冯
冰
冲
决
况
冶
冷
冻
冼
冽
冾
净
凄
准
凇
凈
凉
凋
凌
凍
减
凑
凛
凜
凝
几
凡
凤
処
凪
凭
凯
凰
凱
凳
凶
凸
凹
出
击
函
凿
刀
刁
刃
分
切
刈
刊
刍
刎
刑
划
列
刘
则
刚
创
初
删
判
別
刨
利
刪
别
刮
到
制
刷
券
刹
刺
刻
刽
剁
剂
剃
則
剉
削
剋
剌
前
剎
剐
剑
剔
剖
剛
剜
剝
剣
剤
剥
剧
剩
剪
副
割
創
剷
剽
剿
劃
劇
劈
劉
劊
劍
劏
劑
力
劝
办
功
加
务
劣
动
助
努
劫
劭
励
劲
劳
労
劵
効
劾
势
勁
勃
勇
勉
勋
勐
勒
動
勖
勘
務
勛
勝
勞
募
勢
勤
勧
勳
勵
勸
勺
勻
勾
勿
匀
包
匆
匈
匍
匐
匕
化
北
匙
匝
匠
匡
匣
匪
匮
匯
匱
匹
区
医
匾
匿
區
十
千
卅
升
午
卉
半
卍
华
协
卑
卒
卓
協
单
卖
南
単
博
卜
卞
卟
占
卡
卢
卤
卦
卧
卫
卮
卯
印
危
即
却
卵
卷
卸
卻
卿
厂
厄
厅
历
厉
压
厌
厕
厘
厚
厝
原
厢
厥
厦
厨
厩
厭
厮
厲
厳
去
县
叁
参
參
又
叉
及
友
双
反
収
发
叔
取
受
变
叙
叛
叟
叠
叡
叢
口
古
句
另
叨
叩
只
叫
召
叭
叮
可
台
叱
史
右
叵
叶
号
司
叹
叻
叼
叽
吁
吃
各
吆
合
吉
吊
吋
同
名
后
吏
吐
向
吒
吓
吕
吖
吗
君
吝
吞
吟
吠
吡
否
吧
吨
吩
含
听
吭
吮
启
吱
吳
吴
吵
吶
吸
吹
吻
吼
吽
吾
呀
呂
呃
呆
呈
告
呋
呎
呐
呓
呕
呗
员
呛
呜
呢
呤
呦
周
呱
呲
味
呵
呷
呸
呻
呼
命
咀
咁
咂
咄
咆
咋
和
咎
咏
咐
咒
咔
咕
咖
咗
咘
咙
咚
咛
咣
咤
咦
咧
咨
咩
咪
咫
咬
咭
咯
咱
咲
咳
咸
咻
咽
咿
哀
品
哂
哄
哆
哇
哈
哉
哋
哌
响
哎
哏
哐
哑
哒
哔
哗
哟
員
哥
哦
哧
哨
哩
哪
哭
哮
哲
哺
哼
哽
唁
唄
唆
唇
唉
唏
唐
唑
唔
唠
唤
唧
唬
售
唯
唰
唱
唳
唷
唸
唾
啃
啄
商
啉
啊
問
啓
啕
啖
啜
啞
啟
啡
啤
啥
啦
啧
啪
啫
啬
啮
啰
啱
啲
啵
啶
啷
啸
啻
啼
啾
喀
喂
喃
善
喆
喇
喉
喊
喋
喎
喏
喔
喘
喙
喚
喜
喝
喟
喧
喪
喫
喬
單
喰
喱
喲
喳
喵
営
喷
喹
喺
喻
喽
嗅
嗆
嗇
嗎
嗑
嗒
嗓
嗔
嗖
嗚
嗜
嗝
嗟
嗡
嗣
嗤
嗦
嗨
嗪
嗬
嗯
嗰
嗲
嗳
嗶
嗷
嗽
嘀
嘅
嘆
嘈
嘉
嘌
嘍
嘎
嘔
嘖
嘗
嘘
嘚
嘛
嘜
嘞
嘟
嘢
嘣
嘤
嘧
嘩
嘭
嘮
嘯
嘰
嘱
嘲
嘴
嘶
嘸
嘹
嘻
嘿
噁
噌
噎
噓
噔
噗
噙
噜
噠
噢
噤
器
噩
噪
噬
噱
噴
噶
噸
噹
噻
噼
嚀
嚇
嚎
嚏
嚐
嚓
嚕
嚟
嚣
嚥
嚨
嚮
嚴
嚷
嚼
囂
囉
囊
囍
囑
囔
囗
囚
四
囝
回
囟
因
囡
团
団
囤
囧
囪
囫
园
困
囱
囲
図
围
囹
固
国
图
囿
圃
圄
圆
圈
國
圍
圏
園
圓
圖
團
圜
土
圣
圧
在
圩
圭
地
圳
场
圻
圾
址
坂
均
坊
坍
坎
坏
坐
坑
块
坚
坛
坝
坞
坟
坠
坡
坤
坦
坨
坪
坯
坳
坵
坷
垂
垃
垄
型
垒
垚
垛
垠
垢
垣
垦
垩
垫
垭
垮
垵
埂
埃
埋
城
埔
埕
埗
域
埠
埤
埵
執
埸
培
基
埼
堀
堂
堃
堅
堆
堇
堑
堕
堙
堡
堤
堪
堯
堰
報
場
堵
堺
堿
塊
塌
塑
塔
塗
塘
塚
塞
塢
塩
填
塬
塭
塵
塾
墀
境
墅
墉
墊
墒
墓
増
墘
墙
墜
增
墟
墨
墩
墮
墳
墻
墾
壁
壅
壆
壇
壊
壑
壓
壕
壘
壞
壟
壢
壤
壩
士
壬
壮
壯
声
売
壳
壶
壹
壺
壽
处
备
変
复
夏
夔
夕
外
夙
多
夜
够
夠
夢
夥
大
天
太
夫
夭
央
夯
失
头
夷
夸
夹
夺
夾
奂
奄
奇
奈
奉
奋
奎
奏
奐
契
奔
奕
奖
套
奘
奚
奠
奢
奥
奧
奪
奬
奮
女
奴
奶
奸
她
好
如
妃
妄
妆
妇
妈
妊
妍
妒
妓
妖
妘
妙
妝
妞
妣
妤
妥
妨
妩
妪
妮
妲
妳
妹
妻
妾
姆
姉
姊
始
姍
姐
姑
姒
姓
委
姗
姚
姜
姝
姣
姥
姦
姨
姪
姫
姬
姹
姻
姿
威
娃
娄
娅
娆
娇
娉
娑
娓
娘
娛
娜
娟
娠
娣
娥
娩
娱
娲
娴
娶
娼
婀
婁
婆
婉
婊
婕
婚
婢
婦
婧
婪
婭
婴
婵
婶
婷
婺
婿
媒
媚
媛
媞
媧
媲
媳
媽
媾
嫁
嫂
嫉
嫌
嫑
嫔
嫖
嫘
嫚
嫡
嫣
嫦
嫩
嫲
嫵
嫻
嬅
嬉
嬌
嬗
嬛
嬢
嬤
嬪
嬰
嬴
嬷
嬸
嬿
孀
孃
子
孑
孔
孕
孖
字
存
孙
孚
孛
孜
孝
孟
孢
季
孤
学
孩
孪
孫
孬
孰
孱
孳
孵
學
孺
孽
孿
宁
它
宅
宇
守
安
宋
完
宏
宓
宕
宗
官
宙
定
宛
宜
宝
实
実
宠
审
客
宣
室
宥
宦
宪
宫
宮
宰
害
宴
宵
家
宸
容
宽
宾
宿
寂
寄
寅
密
寇
富
寐
寒
寓
寛
寝
寞
察
寡
寢
寥
實
寧
寨
審
寫
寬
寮
寰
寵
寶
寸
对
寺
寻
导
対
寿
封
専
射
将
將
專
尉
尊
尋
對
導
小
少
尔
尕
尖
尘
尚
尝
尤
尧
尬
就
尴
尷
尸
尹
尺
尻
尼
尽
尾
尿
局
屁
层
屄
居
屆
屈
屉
届
屋
屌
屍
屎
屏
屐
屑
展
屜
属
屠
屡
屢
層
履
屬
屯
山
屹
屿
岀
岁
岂
岌
岐
岑
岔
岖
岗
岘
岙
岚
岛
岡
岩
岫
岬
岭
岱
岳
岷
岸
峇
峋
峒
峙
峡
峤
峥
峦
峨
峪
峭
峯
峰
峴
島
峻
峽
崁
崂
崆
崇
崎
崑
崔
崖
崗
崙
崛
崧
崩
崭
崴
崽
嵇
嵊
嵋
嵌
嵐
嵘
嵩
嵬
嵯
嶂
嶄
嶇
嶋
嶙
嶺
嶼
嶽
巅
巍
巒
巔
巖
川
州
巡
巢
工
左
巧
巨
巩
巫
差
己
已
巳
巴
巷
巻
巽
巾
巿
币
市
布
帅
帆
师
希
帐
帑
帕
帖
帘
帚
帛
帜
帝
帥
带
帧
師
席
帮
帯
帰
帳
帶
帷
常
帼
帽
幀
幂
幄
幅
幌
幔
幕
幟
幡
幢
幣
幫
干
平
年
并
幸
幹
幺
幻
幼
幽
幾
广
庁
広
庄
庆
庇
床
序
庐
库
应
底
庖
店
庙
庚
府
庞
废
庠
度
座
庫
庭
庵
庶
康
庸
庹
庾
廁
廂
廃
廈
廉
廊
廓
廖
廚
廝
廟
廠
廢
廣
廬
廳
延
廷
建
廿
开
弁
异
弃
弄
弈
弊
弋
式
弑
弒
弓
弔
引
弗
弘
弛
弟
张
弥
弦
弧
弩
弭
弯
弱
張
強
弹
强
弼
弾
彅
彆
彈
彌
彎
归
当
录
彗
彙
彝
形
彤
彥
彦
彧
彩
彪
彫
彬
彭
彰
影
彷
役
彻
彼
彿
往
征
径
待
徇
很
徉
徊
律
後
徐
徑
徒
従
徕
得
徘
徙
徜
從
徠
御
徨
復
循
徬
微
徳
徴
徵
德
徹
徼
徽
心
必
忆
忌
忍
忏
忐
忑
忒
忖
志
忘
忙
応
忠
忡
忤
忧
忪
快
忱
念
忻
忽
忿
怀
态
怂
怅
怆
怎
怏
怒
怔
怕
怖
怙
怜
思
怠
怡
急
怦
性
怨
怪
怯
怵
总
怼
恁
恃
恆
恋
恍
恐
恒
恕
恙
恚
恢
恣
恤
恥
恨
恩
恪
恫
恬
恭
息
恰
恳
恵
恶
恸
恺
恻
恼
恿
悄
悅
悉
悌
悍
悔
悖
悚
悟
悠
患
悦
您
悩
悪
悬
悯
悱
悲
悴
悵
悶
悸
悻
悼
悽
情
惆
惇
惊
惋
惑
惕
惘
惚
惜
惟
惠
惡
惦
惧
惨
惩
惫
惬
惭
惮
惯
惰
惱
想
惴
惶
惹
惺
愁
愆
愈
愉
愍
意
愕
愚
愛
愜
感
愣
愤
愧
愫
愷
愿
慄
慈
態
慌
慎
慑
慕
慘
慚
慟
慢
慣
慧
慨
慫
慮
慰
慳
慵
慶
慷
慾
憂
憊
憋
憎
憐
憑
憔
憚
憤
憧
憨
憩
憫
憬
憲
憶
憾
懂
懇
懈
應
懊
懋
懑
懒
懦
懲
懵
懶
懷
懸
懺
懼
懾
懿
戀
戈
戊
戌
戍
戎
戏
成
我
戒
戕
或
战
戚
戛
戟
戡
戦
截
戬
戮
戰
戲
戳
戴
戶
户
戸
戻
戾
房
所
扁
扇
扈
扉
手
才
扎
扑
扒
打
扔
払
托
扛
扣
扦
执
扩
扪
扫
扬
扭
扮
扯
扰
扱
扳
扶
批
扼
找
承
技
抄
抉
把
抑
抒
抓
投
抖
抗
折
抚
抛
抜
択
抟
抠
抡
抢
护
报
抨
披
抬
抱
抵
抹
押
抽
抿
拂
拄
担
拆
拇
拈
拉
拋
拌
拍
拎
拐
拒
拓
拔
拖
拗
拘
拙
拚
招
拜
拟
拡
拢
拣
拥
拦
拧
拨
择
括
拭
拮
拯
拱
拳
拴
拷
拼
拽
拾
拿
持
挂
指
挈
按
挎
挑
挖
挙
挚
挛
挝
挞
挟
挠
挡
挣
挤
挥
挨
挪
挫
振
挲
挹
挺
挽
挾
捂
捅
捆
捉
捋
捌
捍
捎
捏
捐
捕
捞
损
捡
换
捣
捧
捨
捩
据
捱
捲
捶
捷
捺
捻
掀
掂
掃
掇
授
掉
掌
掏
掐
排
掖
掘
掙
掛
掠
採
探
掣
接
控
推
掩
措
掬
掰
掲
掳
掴
掷
掸
掺
揀
揃
揄
揆
揉
揍
描
提
插
揖
揚
換
握
揣
揩
揪
揭
揮
援
揶
揸
揹
揽
搀
搁
搂
搅
損
搏
搐
搓
搔
搖
搗
搜
搞
搡
搪
搬
搭
搵
搶
携
搽
摀
摁
摄
摆
摇
摈
摊
摒
摔
摘
摞
摟
摧
摩
摯
摳
摸
摹
摺
摻
撂
撃
撅
撇
撈
撐
撑
撒
撓
撕
撚
撞
撤
撥
撩
撫
撬
播
撮
撰
撲
撵
撷
撸
撻
撼
撿
擀
擁
擂
擄
擅
擇
擊
擋
操
擎
擒
擔
擘
據
擞
擠
擡
擢
擦
擬
擰
擱
擲
擴
擷
擺
擼
擾
攀
攏
攒
攔
攘
攙
攜
攝
攞
攢
攣
攤
攥
攪
攫
攬
支
收
攸
改
攻
放
政
故
效
敌
敍
敎
敏
救
敕
敖
敗
敘
教
敛
敝
敞
敢
散
敦
敬
数
敲
整
敵
敷
數
斂
斃
文
斋
斌
斎
斐
斑
斓
斗
料
斛
斜
斟
斡
斤
斥
斧
斩
斫
斬
断
斯
新
斷
方
於
施
旁
旃
旅
旋
旌
旎
族
旖
旗
无
既
日
旦
旧
旨
早
旬
旭
旮
旱
时
旷
旺
旻
昀
昂
昆
昇
昉
昊
昌
明
昏
易
昔
昕
昙
星
映
春
昧
昨
昭
是
昱
昴
昵
昶
昼
显
晁
時
晃
晉
晋
晌
晏
晒
晓
晔
晕
晖
晗
晚
晝
晞
晟
晤
晦
晨
晩
普
景
晰
晴
晶
晷
智
晾
暂
暄
暇
暈
暉
暌
暐
暑
暖
暗
暝
暢
暧
暨
暫
暮
暱
暴
暸
暹
曄
曆
曇
曉
曖
曙
曜
曝
曠
曦
曬
曰
曲
曳
更
書
曹
曼
曾
替
最
會
月
有
朋
服
朐
朔
朕
朗
望
朝
期
朦
朧
木
未
末
本
札
朮
术
朱
朴
朵
机
朽
杀
杂
权
杆
杈
杉
李
杏
材
村
杓
杖
杜
杞
束
杠
条
来
杨
杭
杯
杰
東
杳
杵
杷
杼
松
板
极
构
枇
枉
枋
析
枕
林
枚
果
枝
枢
枣
枪
枫
枭
枯
枰
枱
枳
架
枷
枸
柄
柏
某
柑
柒
染
柔
柘
柚
柜
柞
柠
柢
查
柩
柬
柯
柱
柳
柴
柵
査
柿
栀
栃
栄
栅
标
栈
栉
栋
栎
栏
树
栓
栖
栗
校
栩
株
样
核
根
格
栽
栾
桀
桁
桂
桃
桅
框
案
桉
桌
桎
桐
桑
桓
桔
桜
桠
桡
桢
档
桥
桦
桧
桨
桩
桶
桿
梁
梅
梆
梏
梓
梗
條
梟
梢
梦
梧
梨
梭
梯
械
梳
梵
梶
检
棂
棄
棉
棋
棍
棒
棕
棗
棘
棚
棟
棠
棣
棧
森
棱
棲
棵
棹
棺
椁
椅
椋
植
椎
椒
検
椪
椭
椰
椹
椽
椿
楂
楊
楓
楔
楚
楝
楞
楠
楣
楨
楫
業
楮
極
楷
楸
楹
楼
楽
概
榄
榆
榈
榉
榔
榕
榖
榛
榜
榨
榫
榭
榮
榱
榴
榷
榻
槁
槃
構
槌
槍
槎
槐
槓
様
槛
槟
槤
槭
槲
槳
槻
槽
槿
樁
樂
樊
樑
樓
標
樞
樟
模
樣
権
横
樫
樯
樱
樵
樸
樹
樺
樽
樾
橄
橇
橋
橐
橘
橙
機
橡
橢
橫
橱
橹
橼
檀
檄
檎
檐
檔
檗
檜
檢
檬
檯
檳
檸
檻
櫃
櫚
櫛
櫥
櫸
櫻
欄
權
欒
欖
欠
次
欢
欣
欧
欲
欸
欺
欽
款
歆
歇
歉
歌
歎
歐
歓
歙
歛
歡
止
正
此
步
武
歧
歩
歪
歯
歲
歳
歴
歷
歸
歹
死
歼
殁
殃
殆
殇
殉
殊
残
殒
殓
殖
殘
殞
殡
殤
殭
殯
殲
殴
段
殷
殺
殼
殿
毀
毁
毂
毅
毆
毋
母
毎
每
毒
毓
比
毕
毗
毘
毙
毛
毡
毫
毯
毽
氈
氏
氐
民
氓
气
氖
気
氙
氛
氟
氡
氢
氣
氤
氦
氧
氨
氪
氫
氮
氯
氰
氲
水
氷
永
氹
氾
汀
汁
求
汆
汇
汉
汎
汐
汕
汗
汙
汛
汝
汞
江
池
污
汤
汨
汩
汪
汰
汲
汴
汶
汹
決
汽
汾
沁
沂
沃
沅
沈
沉
沌
沏
沐
沒
沓
沖
沙
沛
沟
没
沢
沣
沥
沦
沧
沪
沫
沭
沮
沱
河
沸
油
治
沼
沽
沾
沿
況
泄
泉
泊
泌
泓
法
泗
泛
泞
泠
泡
波
泣
泥
注
泪
泫
泮
泯
泰
泱
泳
泵
泷
泸
泻
泼
泽
泾
洁
洄
洋
洒
洗
洙
洛
洞
津
洩
洪
洮
洱
洲
洵
洶
洸
洹
活
洼
洽
派
流
浃
浄
浅
浆
浇
浊
测
济
浏
浑
浒
浓
浔
浙
浚
浜
浣
浦
浩
浪
浬
浮
浯
浴
海
浸
涂
涅
涇
消
涉
涌
涎
涓
涔
涕
涙
涛
涝
涞
涟
涠
涡
涣
涤
润
涧
涨
涩
涪
涮
涯
液
涵
涸
涼
涿
淀
淄
淅
淆
淇
淋
淌
淑
淒
淖
淘
淙
淚
淞
淡
淤
淦
淨
淩
淪
淫
淬
淮
深
淳
淵
混
淹
淺
添
淼
清
済
渉
渊
渋
渍
渎
渐
渔
渗
渙
渚
減
渝
渠
渡
渣
渤
渥
渦
温
測
渭
港
渲
渴
游
渺
渾
湃
湄
湊
湍
湖
湘
湛
湟
湧
湫
湮
湯
湳
湾
湿
満
溃
溅
溉
溏
源
準
溜
溝
溟
溢
溥
溧
溪
溫
溯
溱
溴
溶
溺
溼
滁
滂
滄
滅
滇
滋
滌
滑
滓
滔
滕
滙
滚
滝
滞
滟
满
滢
滤
滥
滦
滨
滩
滬
滯
滲
滴
滷
滸
滾
滿
漁
漂
漆
漉
漏
漓
演
漕
漠
漢
漣
漩
漪
漫
漬
漯
漱
漲
漳
漸
漾
漿
潆
潇
潋
潍
潑
潔
潘
潛
潜
潞
潟
潢
潤
潦
潧
潭
潮
潰
潴
潸
潺
潼
澀
澄
澆
澈
澍
澎
澗
澜
澡
澤
澧
澱
澳
澹
激
濁
濂
濃
濑
濒
濕
濘
濛
濟
濠
濡
濤
濫
濬
濮
濯
濱
濺
濾
瀅
瀆
瀉
瀋
瀏
瀑
瀕
瀘
瀚
瀛
瀝
瀞
瀟
瀧
瀨
瀬
瀰
瀾
灌
灏
灑
灘
灝
灞
灣
火
灬
灭
灯
灰
灵
灶
灸
灼
災
灾
灿
炀
炁
炅
炉
炊
炎
炒
炔
炕
炖
炙
炜
炫
炬
炭
炮
炯
炳
炷
炸
点
為
炼
炽
烁
烂
烃
烈
烊
烏
烘
烙
烛
烟
烤
烦
烧
烨
烩
烫
烬
热
烯
烷
烹
烽
焉
焊
焕
焖
焗
焘
焙
焚
焜
無
焦
焯
焰
焱
然
焼
煅
煉
煊
煌
煎
煒
煖
煙
煜
煞
煤
煥
煦
照
煨
煩
煮
煲
煸
煽
熄
熊
熏
熒
熔
熙
熟
熠
熨
熬
熱
熵
熹
熾
燁
燃
燄
燈
燉
燊
燎
燒
燔
燕
燙
燜
營
燥
燦
燧
燭
燮
燴
燻
燼
燿
爆
爍
爐
爛
爪
爬
爭
爰
爱
爲
爵
父
爷
爸
爹
爺
爻
爽
爾
牆
片
版
牌
牍
牒
牙
牛
牝
牟
牠
牡
牢
牦
牧
物
牯
牲
牴
牵
特
牺
牽
犀
犁
犄
犊
犍
犒
犢
犧
犬
犯
状
犷
犸
犹
狀
狂
狄
狈
狎
狐
狒
狗
狙
狞
狠
狡
狩
独
狭
狮
狰
狱
狸
狹
狼
狽
猎
猕
猖
猗
猙
猛
猜
猝
猥
猩
猪
猫
猬
献
猴
猶
猷
猾
猿
獄
獅
獎
獐
獒
獗
獠
獣
獨
獭
獰
獲
獵
獷
獸
獺
獻
獼
獾
玄
率
玉
王
玑
玖
玛
玟
玠
玥
玩
玫
玮
环
现
玲
玳
玷
玺
玻
珀
珂
珅
珈
珉
珊
珍
珏
珐
珑
珙
珞
珠
珣
珥
珩
珪
班
珮
珲
珺
現
球
琅
理
琇
琉
琊
琍
琏
琐
琛
琢
琥
琦
琨
琪
琬
琮
琰
琲
琳
琴
琵
琶
琺
琼
瑀
瑁
瑄
瑋
瑕
瑗
瑙
瑚
瑛
瑜
瑞
瑟
瑠
瑣
瑤
瑩
瑪
瑯
瑰
瑶
瑾
璀
璁
璃
璇
璉
璋
璎
璐
璜
璞
璟
璧
璨
環
璽
璿
瓊
瓏
瓒
瓜
瓢
瓣
瓤
瓦
瓮
瓯
瓴
瓶
瓷
甄
甌
甕
甘
甙
甚
甜
生
產
産
甥
甦
用
甩
甫
甬
甭
甯
田
由
甲
申
电
男
甸
町
画
甾
畀
畅
界
畏
畑
畔
留
畜
畝
畢
略
畦
番
畫
異
畲
畳
畴
當
畸
畹
畿
疆
疇
疊
疏
疑
疔
疖
疗
疙
疚
疝
疟
疡
疣
疤
疥
疫
疮
疯
疱
疲
疳
疵
疸
疹
疼
疽
疾
痂
病
症
痈
痉
痊
痍
痒
痔
痕
痘
痙
痛
痞
痠
痢
痣
痤
痧
痨
痪
痫
痰
痱
痴
痹
痺
痼
痿
瘀
瘁
瘋
瘍
瘓
瘘
瘙
瘟
瘠
瘡
瘢
瘤
瘦
瘧
瘩
瘪
瘫
瘴
瘸
瘾
療
癇
癌
癒
癖
癜
癞
癡
癢
癣
癥
癫
癬
癮
癱
癲
癸
発
登
發
白
百
皂
的
皆
皇
皈
皋
皎
皑
皓
皖
皙
皚
皮
皰
皱
皴
皺
皿
盂
盃
盅
盆
盈
益
盎
盏
盐
监
盒
盔
盖
盗
盘
盛
盜
盞
盟
盡
監
盤
盥
盧
盪
目
盯
盱
盲
直
相
盹
盼
盾
省
眈
眉
看
県
眙
眞
真
眠
眦
眨
眩
眯
眶
眷
眸
眺
眼
眾
着
睁
睇
睏
睐
睑
睛
睜
睞
睡
睢
督
睥
睦
睨
睪
睫
睬
睹
睽
睾
睿
瞄
瞅
瞇
瞋
瞌
瞎
瞑
瞒
瞓
瞞
瞟
瞠
瞥
瞧
瞩
瞪
瞬
瞭
瞰
瞳
瞻
瞼
瞿
矇
矍
矗
矚
矛
矜
矢
矣
知
矩
矫
短
矮
矯
石
矶
矽
矾
矿
码
砂
砌
砍
砒
研
砖
砗
砚
砝
砣
砥
砧
砭
砰
砲
破
砷
砸
砺
砼
砾
础
硅
硐
硒
硕
硝
硫
硬
确
硯
硼
碁
碇
碉
碌
碍
碎
碑
碓
碗
碘
碚
碛
碟
碣
碧
碩
碰
碱
碳
碴
確
碼
碾
磁
磅
磊
磋
磐
磕
磚
磡
磨
磬
磯
磲
磷
磺
礁
礎
礙
礡
礦
礪
礫
礴
示
礼
社
祀
祁
祂
祇
祈
祉
祎
祐
祕
祖
祗
祚
祛
祜
祝
神
祟
祠
祢
祥
票
祭
祯
祷
祸
祺
祿
禀
禁
禄
禅
禍
禎
福
禛
禦
禧
禪
禮
禱
禹
禺
离
禽
禾
禿
秀
私
秃
秆
秉
秋
种
科
秒
秘
租
秣
秤
秦
秧
秩
秭
积
称
秸
移
秽
稀
稅
程
稍
税
稔
稗
稚
稜
稞
稟
稠
稣
種
稱
稲
稳
稷
稹
稻
稼
稽
稿
穀
穂
穆
穌
積
穎
穗
穢
穩
穫
穴
究
穷
穹
空
穿
突
窃
窄
窈
窍
窑
窒
窓
窕
窖
窗
窘
窜
窝
窟
窠
窥
窦
窨
窩
窪
窮
窯
窺
窿
竄
竅
竇
竊
立
竖
站
竜
竞
竟
章
竣
童
竭
端
競
竹
竺
竽
竿
笃
笆
笈
笋
笏
笑
笔
笙
笛
笞
笠
符
笨
第
笹
笺
笼
筆
等
筊
筋
筍
筏
筐
筑
筒
答
策
筛
筝
筠
筱
筲
筵
筷
筹
签
简
箇
箋
箍
箏
箐
箔
箕
算
箝
管
箩
箫
箭
箱
箴
箸
節
篁
範
篆
篇
築
篑
篓
篙
篝
篠
篡
篤
篩
篪
篮
篱
篷
簇
簌
簍
簡
簦
簧
簪
簫
簷
簸
簽
簾
簿
籁
籃
籌
籍
籐
籟
籠
籤
籬
籮
籲
米
类
籼
籽
粄
粉
粑
粒
粕
粗
粘
粟
粤
粥
粧
粪
粮
粱
粲
粳
粵
粹
粼
粽
精
粿
糅
糊
糍
糕
糖
糗
糙
糜
糞
糟
糠
糧
糬
糯
糰
糸
系
糾
紀
紂
約
紅
紉
紊
紋
納
紐
紓
純
紗
紘
紙
級
紛
紜
素
紡
索
紧
紫
紮
累
細
紳
紹
紺
終
絃
組
絆
経
結
絕
絞
絡
絢
給
絨
絮
統
絲
絳
絵
絶
絹
綁
綏
綑
經
継
続
綜
綠
綢
綦
綫
綬
維
綱
網
綴
綵
綸
綺
綻
綽
綾
綿
緊
緋
総
緑
緒
緘
線
緝
緞
締
緣
編
緩
緬
緯
練
緹
緻
縁
縄
縈
縛
縝
縣
縫
縮
縱
縴
縷
總
績
繁
繃
繆
繇
繋
織
繕
繚
繞
繡
繩
繪
繫
繭
繳
繹
繼
繽
纂
續
纍
纏
纓
纔
纖
纜
纠
红
纣
纤
约
级
纨
纪
纫
纬
纭
纯
纰
纱
纲
纳
纵
纶
纷
纸
纹
纺
纽
纾
线
绀
练
组
绅
细
织
终
绊
绍
绎
经
绑
绒
结
绔
绕
绘
给
绚
绛
络
绝
绞
统
绡
绢
绣
绥
绦
继
绩
绪
绫
续
绮
绯
绰
绳
维
绵
绶
绷
绸
绻
综
绽
绾
绿
缀
缄
缅
缆
缇
缈
缉
缎
缓
缔
缕
编
缘
缙
缚
缜
缝
缠
缢
缤
缥
缨
缩
缪
缭
缮
缰
缱
缴
缸
缺
缽
罂
罄
罌
罐
网
罔
罕
罗
罚
罡
罢
罩
罪
置
罰
署
罵
罷
罹
羁
羅
羈
羊
羌
美
羔
羚
羞
羟
羡
羣
群
羥
羧
羨
義
羯
羲
羸
羹
羽
羿
翁
翅
翊
翌
翎
習
翔
翘
翟
翠
翡
翦
翩
翰
翱
翳
翹
翻
翼
耀
老
考
耄
者
耆
耋
而
耍
耐
耒
耕
耗
耘
耙
耦
耨
耳
耶
耷
耸
耻
耽
耿
聂
聆
聊
聋
职
聒
联
聖
聘
聚
聞
聪
聯
聰
聲
聳
聴
聶
職
聽
聾
聿
肃
肄
肅
肆
肇
肉
肋
肌
肏
肓
肖
肘
肚
肛
肝
肠
股
肢
肤
肥
肩
肪
肮
肯
肱
育
肴
肺
肽
肾
肿
胀
胁
胃
胄
胆
背
胍
胎
胖
胚
胛
胜
胝
胞
胡
胤
胥
胧
胫
胭
胯
胰
胱
胳
胴
胶
胸
胺
能
脂
脅
脆
脇
脈
脉
脊
脍
脏
脐
脑
脓
脖
脘
脚
脛
脣
脩
脫
脯
脱
脲
脳
脸
脹
脾
腆
腈
腊
腋
腌
腎
腐
腑
腓
腔
腕
腥
腦
腩
腫
腭
腮
腰
腱
腳
腴
腸
腹
腺
腻
腼
腾
腿
膀
膈
膊
膏
膑
膘
膚
膛
膜
膝
膠
膦
膨
膩
膳
膺
膻
膽
膾
膿
臀
臂
臃
臆
臉
臊
臍
臓
臘
臟
臣
臥
臧
臨
自
臬
臭
至
致
臺
臻
臼
臾
舀
舂
舅
舆
與
興
舉
舊
舌
舍
舎
舐
舒
舔
舖
舗
舛
舜
舞
舟
航
舫
般
舰
舱
舵
舶
舷
舸
船
舺
舾
艇
艋
艘
艙
艦
艮
良
艰
艱
色
艳
艷
艹
艺
艾
节
芃
芈
芊
芋
芍
芎
芒
芙
芜
芝
芡
芥
芦
芩
芪
芫
芬
芭
芮
芯
花
芳
芷
芸
芹
芻
芽
芾
苁
苄
苇
苋
苍
苏
苑
苒
苓
苔
苕
苗
苛
苜
苞
苟
苡
苣
若
苦
苫
苯
英
苷
苹
苻
茁
茂
范
茄
茅
茉
茎
茏
茗
茜
茧
茨
茫
茬
茭
茯
茱
茲
茴
茵
茶
茸
茹
茼
荀
荃
荆
草
荊
荏
荐
荒
荔
荖
荘
荚
荞
荟
荠
荡
荣
荤
荥
荧
荨
荪
荫
药
荳
荷
荸
荻
荼
荽
莅
莆
莉
莊
莎
莒
莓
莖
莘
莞
莠
莢
莧
莪
莫
莱
莲
莴
获
莹
莺
莽
莿
菀
菁
菅
菇
菈
菊
菌
菏
菓
菖
菘
菜
菟
菠
菡
菩
華
菱
菲
菸
菽
萁
萃
萄
萊
萋
萌
萍
萎
萘
萝
萤
营
萦
萧
萨
萩
萬
萱
萵
萸
萼
落
葆
葉
著
葚
葛
葡
董
葦
葩
葫
葬
葭
葯
葱
葳
葵
葷
葺
蒂
蒋
蒐
蒔
蒙
蒜
蒞
蒟
蒡
蒨
蒲
蒸
蒹
蒻
蒼
蒿
蓁
蓄
蓆
蓉
蓋
蓑
蓓
蓖
蓝
蓟
蓦
蓬
蓮
蓼
蓿
蔑
蔓
蔔
蔗
蔘
蔚
蔡
蔣
蔥
蔫
蔬
蔭
蔵
蔷
蔺
蔻
蔼
蔽
蕁
蕃
蕈
蕉
蕊
蕎
蕙
蕤
蕨
蕩
蕪
蕭
蕲
蕴
蕻
蕾
薄
薅
薇
薈
薊
薏
薑
薔
薙
薛
薦
薨
薩
薪
薬
薯
薰
薹
藉
藍
藏
藐
藓
藕
藜
藝
藤
藥
藩
藹
藻
藿
蘆
蘇
蘊
蘋
蘑
蘚
蘭
蘸
蘼
蘿
虎
虏
虐
虑
虔
處
虚
虛
虜
虞
號
虢
虧
虫
虬
虱
虹
虻
虽
虾
蚀
蚁
蚂
蚊
蚌
蚓
蚕
蚜
蚝
蚣
蚤
蚩
蚪
蚯
蚱
蚵
蛀
蛆
蛇
蛊
蛋
蛎
蛐
蛔
蛙
蛛
蛟
蛤
蛭
蛮
蛰
蛳
蛹
蛻
蛾
蜀
蜂
蜃
蜆
蜇
蜈
蜊
蜍
蜒
蜓
蜕
蜗
蜘
蜚
蜜
蜡
蜢
蜥
蜱
蜴
蜷
蜻
蜿
蝇
蝈
蝉
蝌
蝎
蝕
蝗
蝙
蝟
蝠
蝦
蝨
蝴
蝶
蝸
蝼
螂
螃
融
螞
螢
螨
螯
螳
螺
蟀
蟄
蟆
蟋
蟎
蟑
蟒
蟠
蟬
蟲
蟹
蟻
蟾
蠅
蠍
蠔
蠕
蠛
蠟
蠡
蠢
蠣
蠱
蠶
蠹
蠻
血
衄
衅
衆
行
衍
術
衔
街
衙
衛
衝
衞
衡
衢
衣
补
表
衩
衫
衬
衮
衰
衲
衷
衹
衾
衿
袁
袂
袄
袅
袈
袋
袍
袒
袖
袜
袞
袤
袪
被
袭
袱
裁
裂
装
裆
裊
裏
裔
裕
裘
裙
補
裝
裟
裡
裤
裨
裱
裳
裴
裸
裹
製
裾
褂
複
褐
褒
褓
褔
褚
褥
褪
褫
褲
褶
褻
襁
襄
襟
襠
襪
襬
襯
襲
西
要
覃
覆
覇
見
規
覓
視
覚
覦
覧
親
覬
観
覷
覺
覽
觀
见
观
规
觅
视
览
觉
觊
觎
觐
觑
角
觞
解
觥
触
觸
言
訂
計
訊
討
訓
訕
訖
託
記
訛
訝
訟
訣
訥
訪
設
許
訳
訴
訶
診
註
証
詆
詐
詔
評
詛
詞
詠
詡
詢
詣
試
詩
詫
詬
詭
詮
詰
話
該
詳
詹
詼
誅
誇
誉
誌
認
誓
誕
誘
語
誠
誡
誣
誤
誥
誦
誨
說
説
読
誰
課
誹
誼
調
諄
談
請
諏
諒
論
諗
諜
諡
諦
諧
諫
諭
諮
諱
諳
諷
諸
諺
諾
謀
謁
謂
謄
謊
謎
謐
謔
謗
謙
講
謝
謠
謨
謬
謹
謾
譁
證
譎
譏
識
譙
譚
譜
警
譬
譯
議
譲
譴
護
譽
讀
變
讓
讚
讞
计
订
认
讥
讧
讨
让
讪
讫
训
议
讯
记
讲
讳
讴
讶
讷
许
讹
论
讼
讽
设
访
诀
证
诃
评
诅
识
诈
诉
诊
诋
词
诏
译
试
诗
诘
诙
诚
诛
话
诞
诟
诠
诡
询
诣
诤
该
详
诧
诩
诫
诬
语
误
诰
诱
诲
说
诵
诶
请
诸
诺
读
诽
课
诿
谀
谁
调
谄
谅
谆
谈
谊
谋
谌
谍
谎
谏
谐
谑
谒
谓
谔
谕
谗
谘
谙
谚
谛
谜
谟
谢
谣
谤
谥
谦
谧
谨
谩
谪
谬
谭
谯
谱
谲
谴
谶
谷
豁
豆
豇
豈
豉
豊
豌
豎
豐
豔
豚
象
豢
豪
豫
豬
豹
豺
貂
貅
貌
貓
貔
貘
貝
貞
負
財
貢
貧
貨
販
貪
貫
責
貯
貰
貳
貴
貶
買
貸
費
貼
貽
貿
賀
賁
賂
賃
賄
資
賈
賊
賑
賓
賜
賞
賠
賡
賢
賣
賤
賦
質
賬
賭
賴
賺
購
賽
贅
贈
贊
贍
贏
贓
贖
贛
贝
贞
负
贡
财
责
贤
败
账
货
质
贩
贪
贫
贬
购
贮
贯
贰
贱
贲
贴
贵
贷
贸
费
贺
贻
贼
贾
贿
赁
赂
赃
资
赅
赈
赊
赋
赌
赎
赏
赐
赓
赔
赖
赘
赚
赛
赝
赞
赠
赡
赢
赣
赤
赦
赧
赫
赭
走
赳
赴
赵
赶
起
趁
超
越
趋
趕
趙
趟
趣
趨
足
趴
趵
趸
趺
趾
跃
跄
跆
跋
跌
跎
跑
跖
跚
跛
距
跟
跡
跤
跨
跩
跪
路
跳
践
跷
跹
跺
跻
踉
踊
踌
踏
踐
踝
踞
踟
踢
踩
踪
踮
踱
踴
踵
踹
蹂
蹄
蹇
蹈
蹉
蹊
蹋
蹑
蹒
蹙
蹟
蹣
蹤
蹦
蹩
蹬
蹭
蹲
蹴
蹶
蹺
蹼
蹿
躁
躇
躉
躊
躋
躍
躏
躪
身
躬
躯
躲
躺
軀
車
軋
軌
軍
軒
軟
転
軸
軼
軽
軾
較
載
輒
輓
輔
輕
輛
輝
輟
輩
輪
輯
輸
輻
輾
輿
轄
轅
轆
轉
轍
轎
轟
车
轧
轨
轩
转
轭
轮
软
轰
轲
轴
轶
轻
轼
载
轿
较
辄
辅
辆
辇
辈
辉
辊
辍
辐
辑
输
辕
辖
辗
辘
辙
辛
辜
辞
辟
辣
辦
辨
辩
辫
辭
辮
辯
辰
辱
農
边
辺
辻
込
辽
达
迁
迂
迄
迅
过
迈
迎
运
近
返
还
这
进
远
违
连
迟
迢
迤
迥
迦
迩
迪
迫
迭
述
迴
迷
迸
迹
迺
追
退
送
适
逃
逅
逆
选
逊
逍
透
逐
递
途
逕
逗
這
通
逛
逝
逞
速
造
逢
連
逮
週
進
逵
逶
逸
逻
逼
逾
遁
遂
遅
遇
遊
運
遍
過
遏
遐
遑
遒
道
達
違
遗
遙
遛
遜
遞
遠
遢
遣
遥
遨
適
遭
遮
遲
遴
遵
遶
遷
選
遺
遼
遽
避
邀
邁
邂
邃
還
邇
邈
邊
邋
邏
邑
邓
邕
邛
邝
邢
那
邦
邨
邪
邬
邮
邯
邰
邱
邳
邵
邸
邹
邺
邻
郁
郅
郊
郎
郑
郜
郝
郡
郢
郤
郦
郧
部
郫
郭
郴
郵
郷
郸
都
鄂
鄉
鄒
鄔
鄙
鄞
鄢
鄧
鄭
鄰
鄱
鄲
鄺
酉
酊
酋
酌
配
酐
酒
酗
酚
酝
酢
酣
酥
酩
酪
酬
酮
酯
酰
酱
酵
酶
酷
酸
酿
醃
醇
醉
醋
醍
醐
醒
醚
醛
醜
醞
醣
醪
醫
醬
醮
醯
醴
醺
釀
釁
采
釉
释
釋
里
重
野
量
釐
金
釗
釘
釜
針
釣
釦
釧
釵
鈀
鈉
鈍
鈎
鈔
鈕
鈞
鈣
鈦
鈪
鈴
鈺
鈾
鉀
鉄
鉅
鉉
鉑
鉗
鉚
鉛
鉤
鉴
鉻
銀
銃
銅
銑
銓
銖
銘
銜
銬
銭
銮
銳
銷
銹
鋁
鋅
鋒
鋤
鋪
鋰
鋸
鋼
錄
錐
錘
錚
錠
錢
錦
錨
錫
錮
錯
録
錳
錶
鍊
鍋
鍍
鍛
鍥
鍰
鍵
鍺
鍾
鎂
鎊
鎌
鎏
鎔
鎖
鎗
鎚
鎧
鎬
鎮
鎳
鏈
鏖
鏗
鏘
鏞
鏟
鏡
鏢
鏤
鏽
鐘
鐮
鐲
鐳
鐵
鐸
鐺
鑄
鑊
鑑
鑒
鑣
鑫
鑰
鑲
鑼
鑽
鑾
鑿
针
钉
钊
钎
钏
钒
钓
钗
钙
钛
钜
钝
钞
钟
钠
钡
钢
钣
钤
钥
钦
钧
钨
钩
钮
钯
钰
钱
钳
钴
钵
钺
钻
钼
钾
钿
铀
铁
铂
铃
铄
铅
铆
铉
铎
铐
铛
铜
铝
铠
铡
铢
铣
铤
铨
铩
铬
铭
铮
铰
铲
铵
银
铸
铺
链
铿
销
锁
锂
锄
锅
锆
锈
锉
锋
锌
锏
锐
锑
错
锚
锟
锡
锢
锣
锤
锥
锦
锭
键
锯
锰
锲
锵
锹
锺
锻
镀
镁
镂
镇
镉
镌
镍
镐
镑
镕
镖
镗
镛
镜
镣
镭
镯
镰
镳
镶
長
长
門
閃
閉
開
閎
閏
閑
閒
間
閔
閘
閡
関
閣
閥
閨
閩
閱
閲
閹
閻
閾
闆
闇
闊
闌
闍
闔
闕
闖
闘
關
闡
闢
门
闪
闫
闭
问
闯
闰
闲
间
闵
闷
闸
闹
闺
闻
闽
闾
阀
阁
阂
阅
阆
阇
阈
阉
阎
阐
阑
阔
阕
阖
阙
阚
阜
队
阡
阪
阮
阱
防
阳
阴
阵
阶
阻
阿
陀
陂
附
际
陆
陇
陈
陋
陌
降
限
陕
陛
陝
陞
陟
陡
院
陣
除
陨
险
陪
陰
陲
陳
陵
陶
陷
陸
険
陽
隅
隆
隈
隊
隋
隍
階
随
隐
隔
隕
隘
隙
際
障
隠
隣
隧
隨
險
隱
隴
隶
隸
隻
隼
隽
难
雀
雁
雄
雅
集
雇
雉
雋
雌
雍
雎
雏
雑
雒
雕
雖
雙
雛
雜
雞
離
難
雨
雪
雯
雰
雲
雳
零
雷
雹
電
雾
需
霁
霄
霆
震
霈
霉
霊
霍
霎
霏
霑
霓
霖
霜
霞
霧
霭
霰
露
霸
霹
霽
霾
靂
靄
靈
青
靓
靖
静
靚
靛
靜
非
靠
靡
面
靥
靦
革
靳
靴
靶
靼
鞅
鞋
鞍
鞏
鞑
鞘
鞠
鞣
鞦
鞭
韆
韋
韌
韓
韜
韦
韧
韩
韬
韭
音
韵
韶
韻
響
頁
頂
頃
項
順
須
頌
預
頑
頒
頓
頗
領
頜
頡
頤
頫
頭
頰
頷
頸
頹
頻
頼
顆
題
額
顎
顏
顔
願
顛
類
顧
顫
顯
顱
顴
页
顶
顷
项
顺
须
顼
顽
顾
顿
颁
颂
预
颅
领
颇
颈
颉
颊
颌
颍
颐
频
颓
颔
颖
颗
题
颚
颛
颜
额
颞
颠
颡
颢
颤
颦
颧
風
颯
颱
颳
颶
颼
飄
飆
风
飒
飓
飕
飘
飙
飚
飛
飞
食
飢
飨
飩
飪
飯
飲
飼
飽
飾
餃
餅
餉
養
餌
餐
餒
餓
餘
餚
餛
餞
餡
館
餮
餵
餾
饅
饈
饋
饌
饍
饑
饒
饕
饗
饞
饥
饨
饪
饬
饭
饮
饯
饰
饱
饲
饴
饵
饶
饷
饺
饼
饽
饿
馀
馁
馄
馅
馆
馈
馋
馍
馏
馒
馔
首
馗
香
馥
馨
馬
馭
馮
馳
馴
駁
駄
駅
駆
駐
駒
駕
駛
駝
駭
駱
駿
騁
騎
騏
験
騙
騨
騰
騷
驀
驅
驊
驍
驒
驕
驗
驚
驛
驟
驢
驥
马
驭
驮
驯
驰
驱
驳
驴
驶
驷
驸
驹
驻
驼
驾
驿
骁
骂
骄
骅
骆
骇
骈
骊
骋
验
骏
骐
骑
骗
骚
骛
骜
骞
骠
骡
骤
骥
骧
骨
骯
骰
骶
骷
骸
骼
髂
髅
髋
髏
髒
髓
體
髖
高
髦
髪
髮
髯
髻
鬃
鬆
鬍
鬓
鬚
鬟
鬢
鬣
鬥
鬧
鬱
鬼
魁
魂
魄
魅
魇
魍
魏
魔
魘
魚
魯
魷
鮑
鮨
鮪
鮭
鮮
鯉
鯊
鯖
鯛
鯨
鯰
鯽
鰍
鰓
鰭
鰲
鰻
鰾
鱈
鱉
鱔
鱗
鱷
鱸
鱼
鱿
鲁
鲈
鲍
鲑
鲛
鲜
鲟
鲢
鲤
鲨
鲫
鲱
鲲
鲶
鲷
鲸
鳃
鳄
鳅
鳌
鳍
鳕
鳖
鳗
鳝
鳞
鳥
鳩
鳳
鳴
鳶
鴉
鴕
鴛
鴦
鴨
鴻
鴿
鵑
鵜
鵝
鵡
鵬
鵰
鵲
鶘
鶩
鶯
鶴
鷗
鷲
鷹
鷺
鸚
鸞
鸟
鸠
鸡
鸢
鸣
鸥
鸦
鸨
鸪
鸭
鸯
鸳
鸵
鸽
鸾
鸿
鹂
鹃
鹄
鹅
鹈
鹉
鹊
鹌
鹏
鹑
鹕
鹘
鹜
鹞
鹤
鹦
鹧
鹫
鹭
鹰
鹳
鹵
鹹
鹼
鹽
鹿
麂
麋
麒
麓
麗
麝
麟
麥
麦
麩
麴
麵
麸
麺
麻
麼
麽
麾
黃
黄
黍
黎
黏
黑
黒
黔
默
黛
黜
黝
點
黠
黨
黯
黴
鼋
鼎
鼐
鼓
鼠
鼬
鼹
鼻
鼾
齁
齊
齋
齐
齒
齡
齢
齣
齦
齿
龄
龅
龈
龊
龋
龌
龍
龐
龔
龕
龙
龚
龛
龜
龟
︰
︱
︶
︿
﹁
﹂
﹍
﹏
﹐
﹑
﹒
﹔
﹕
﹖
﹗
﹙
﹚
﹝
﹞
﹡
﹣
！
＂
＃
＄
％
＆
＇
（
）
＊
＋
，
－
．
／
０
１
２
３
４
５
６
７
８
９
：
；
＜
＝
＞
？
＠
［
＼
］
＾
＿
｀
ａ
ｂ
ｃ
ｄ
ｅ
ｆ
ｇ
ｈ
ｉ
ｊ
ｋ
ｌ
ｍ
ｎ
ｏ
ｐ
ｑ
ｒ
ｓ
ｔ
ｕ
ｖ
ｗ
ｘ
ｙ
ｚ
｛
｜
｝
～
｡
｢
｣
､
･
ｯ
ｰ
ｲ
ｸ
ｼ
ｽ
ﾄ
ﾉ
ﾌ
ﾗ
ﾙ
ﾝ
ﾞ
ﾟ
￣
￥
👍
🔥
😂
😎
...
yam
10
2017
12
11
2016
20
30
15
06
lofter
##s
2015
by
16
14
18
13
24
17
2014
21
##0
22
19
25
23
com
100
00
05
2013
##a
03
09
08
28
##2
50
01
04
##1
27
02
2012
##3
26
##e
07
##8
##5
##6
##4
##9
##7
29
2011
40
##t
2010
##o
##d
##i
2009
##n
app
www
the
##m
31
##c
##l
##y
##r
##g
2008
60
http
200
qq
##p
80
##f
google
pixnet
90
cookies
tripadvisor
500
##er
##k
35
##h
facebook
2007
2000
70
##b
of
##x
##u
45
300
iphone
32
1000
2006
48
ip
36
in
38
3d
##w
##ing
55
ctrip
##on
##v
33
##の
to
34
400
id
2005
it
37
windows
llc
top
99
42
39
000
led
at
##an
41
51
52
46
49
43
53
44
##z
android
58
and
59
2004
56
vr
##か
5000
2003
47
blogthis
twitter
54
##le
150
ok
2018
57
75
cn
no
ios
##in
##mm
##00
800
on
te
3000
65
2001
360
95
ig
lv
120
##ng
##を
##us
##に
pc
てす
──
600
##te
85
2002
88
##ed
html
ncc
wifi
email
64
blog
is
##10
##て
mail
online
##al
dvd
##ic
studio
##は
##℃
##ia
##と
line
vip
72
##q
98
##ce
##en
for
##is
##ra
##es
##j
usb
net
cp
1999
asia
4g
##cm
diy
new
3c
##お
ta
66
language
vs
apple
tw
86
web
##ne
ipad
62
you
##re
101
68
##tion
ps
de
bt
pony
atm
##2017
1998
67
##ch
ceo
##or
go
##na
av
pro
cafe
96
pinterest
97
63
pixstyleme3c
##ta
more
said
##2016
1997
mp3
700
##ll
nba
jun
##20
92
tv
1995
pm
61
76
nbsp
250
##ie
linux
##ma
cd
110
hd
##17
78
##ion
77
6000
am
##th
##st
94
##se
##et
69
180
gdp
my
105
81
abc
89
flash
79
one
93
1990
1996
##ck
gps
##も
##ly
web885
106
2020
91
##ge
4000
1500
xd
boss
isbn
1994
org
##ry
me
love
##11
0fork
73
##12
3g
##ter
##ar
71
82
##la
hotel
130
1970
pk
83
87
140
ie
##os
##30
##el
74
##50
seo
cpu
##ml
p2p
84
may
##る
sun
tue
internet
cc
posted
youtube
##at
##ン
##man
ii
##ル
##15
abs
nt
pdf
yahoo
ago
1980
##it
news
mac
104
##てす
##me
##り
java
1992
spa
##de
##nt
hk
all
plus
la
1993
##mb
##16
##ve
west
##da
160
air
##い
##ps
から
##to
1989
logo
htc
php
https
fi
momo
##son
sat
##ke
##80
ebd
suv
wi
day
apk
##88
##um
mv
galaxy
wiki
or
brake
##ス
1200
する
this
1991
mon
##こ
❤2017
po
##ない
javascript
life
home
june
##ss
system
900
##ー
##０
pp
1988
world
fb
4k
br
##as
ic
ai
leonardo
safari
##60
live
free
xx
wed
win7
kiehl
##co
lg
o2o
##go
us
235
1949
mm
しい
vfm
kanye
##90
##2015
##id
jr
##ey
123
rss
##sa
##ro
##am
##no
thu
fri
350
##sh
##ki
103
comments
name
##のて
##pe
##ine
max
1987
8000
uber
##mi
##ton
wordpress
office
1986
1985
##ment
107
bd
win10
##ld
##li
gmail
bb
dior
##rs
##ri
##rd
##ます
up
cad
##®
dr
して
read
##21
をお
##io
##99
url
1984
pvc
paypal
show
policy
##40
##ty
##18
with
##★
##01
txt
102
##ba
dna
from
post
mini
ar
taiwan
john
##ga
privacy
agoda
##13
##ny
word
##24
##22
##by
##ur
##hz
1982
##ang
265
cookie
netscape
108
##ka
##～
##ad
house
share
note
ibm
code
hello
nike
sim
survey
##016
1979
1950
wikia
##32
##017
5g
cbc
##tor
##kg
1983
##rt
##14
campaign
store
2500
os
##ct
##ts
##°
170
api
##ns
365
excel
##な
##ao
##ら
##し
～～
##nd
university
163
には
518
##70
##ya
##il
##25
pierre
ipo
0020
897
##23
hotels
##ian
のお
125
years
6606
##ers
##26
high
##day
time
##ay
bug
##line
##く
##す
##be
xp
talk2yam
yamservice
10000
coco
##dy
sony
##ies
1978
microsoft
david
people
##ha
1960
instagram
intel
その
##ot
iso
1981
##va
115
##mo
##land
xxx
man
co
ltxsw
##ation
baby
220
##pa
##ol
1945
7000
tag
450
##ue
msn
##31
oppo
##ト
##ca
control
##om
st
chrome
##ure
##ん
be
##き
lol
##19
した
##bo
240
lady
##100
##way
##から
4600
##ko
##do
##un
4s
corporation
168
##ni
herme
##28
ｃｐ
978
##up
##06
ui
##ds
ppt
admin
three
します
bbc
re
128
##48
ca
##015
##35
hp
##ee
tpp
##た
##ive
××
root
##cc
##ました
##ble
##ity
adobe
park
114
et
oled
city
##ex
##ler
##ap
china
##book
20000
view
##ice
global
##km
your
hong
##mg
out
##ms
ng
ebay
##29
menu
ubuntu
##cy
rom
##view
open
ktv
do
server
##lo
if
english
##ね
##５
##oo
1600
##02
step1
kong
club
135
july
inc
1976
mr
hi
##net
touch
##ls
##ii
michael
lcd
##05
##33
phone
james
step2
1300
ios9
##box
dc
##２
##ley
samsung
111
280
pokemon
css
##ent
##les
いいえ
##１
s8
atom
play
bmw
##said
sa
etf
ctrl
♥yoyo♥
##55
2025
##2014
##66
adidas
amazon
1958
##ber
##ner
visa
##77
##der
1800
connectivity
##hi
firefox
109
118
hr
so
style
mark
pop
ol
skip
1975
as
##27
##ir
##61
190
mba
##う
##ai
le
##ver
1900
cafe2017
lte
super
113
129
##ron
amd
like
##☆
are
##ster
we
##sk
paul
data
international
##ft
longchamp
ssd
good
##ート
##ti
reply
##my
↓↓↓
apr
star
##ker
source
136
js
112
get
force
photo
##one
126
##2013
##ow
link
bbs
1972
goods
##lin
python
119
##ip
game
##ics
##ません
blue
##●
520
##45
page
itunes
##03
1955
260
1968
gt
gif
618
##ff
##47
group
くたさい
about
bar
ganji
##nce
music
lee
not
1977
1971
1973
##per
an
faq
comment
##って
days
##ock
116
##bs
1974
1969
v1
player
1956
xbox
sql
fm
f1
139
##ah
210
##lv
##mp
##000
melody
1957
##３
550
17life
199
1966
xml
market
##au
##71
999
##04
what
gl
##95
##age
tips
##68
book
##ting
mysql
can
1959
230
##ung
wonderland
watch
10℃
##ction
9000
mar
mobile
1946
1962
article
##db
part
▲top
party
って
1967
1964
1948
##07
##ore
##op
この
dj
##78
##38
010
main
225
1965
##ong
art
320
ad
134
020
##73
117
pm2
japan
228
##08
ts
1963
##ica
der
sm
##36
2019
##wa
ct
##７
##や
##64
1937
homemesh
search
##85
##れは
##tv
##di
macbook
##９
##くたさい
service
##♥
type
った
750
##ier
##si
##75
##います
##ok
best
##ット
goris
lock
##った
cf
3m
big
##ut
ftp
carol
##vi
１０
1961
happy
sd
##ac
122
anti
pe
cnn
iii
1920
138
##ラ
1940
esp
jan
tags
##98
##51
august
vol
##86
154
##™
##fs
##れ
##sion
design
ac
##ム
press
jordan
ppp
that
key
check
##６
##tt
##㎡
1080p
##lt
power
##42
1952
##bc
vivi
##ック
he
133
121
jpg
##rry
201
175
3500
1947
nb
##ted
##rn
しています
1954
usd
##t00
master
##ンク
001
model
##58
al
##09
1953
##34
ram
goo
ても
##ui
127
1930
red
##ary
rpg
item
##pm
##41
270
##za
project
##2012
hot
td
blogabstract
##ger
##62
650
##44
gr2
##します
##ｍ
black
electronic
nfc
year
asus
また
html5
cindy
##hd
m3
132
esc
##od
booking
##53
fed
tvb
##81
##ina
mit
165
##いる
chan
192
distribution
next
になる
peter
bios
steam
cm
1941
にも
pk10
##ix
##65
##91
dec
nasa
##ana
icecat
00z
b1
will
##46
li
se
##ji
##み
##ard
oct
##ain
jp
##ze
##bi
cio
##56
smart
h5
##39
##port
curve
vpn
##nm
##dia
utc
##あり
12345678910
##52
rmvb
chanel
a4
miss
##and
##im
media
who
##63
she
girl
5s
124
vera
##して
class
vivo
king
##フ
##ei
national
ab
1951
5cm
888
145
ipod
ap
1100
5mm
211
ms
2756
##69
mp4
msci
##po
##89
131
mg
index
380
##bit
##out
##zz
##97
##67
158
apec
##８
photoshop
opec
￥799
ては
##96
##tes
##ast
2g
○○
##ール
￥2899
##ling
##よ
##ory
1938
##ical
kitty
content
##43
step3
##cn
win8
155
vc
1400
iphone7
robert
##した
tcl
137
beauty
##87
en
dollars
##ys
##oc
step
pay
yy
a1
##2011
##lly
##ks
##♪
1939
188
download
1944
sep
exe
ph
います
school
gb
center
pr
street
##board
uv
##37
##lan
winrar
##que
##ua
##com
1942
1936
480
gpu
##４
ettoday
fu
tom
##54
##ren
##via
149
##72
b2b
144
##79
##tch
rose
arm
mb
##49
##ial
##nn
nvidia
step4
mvp
00㎡
york
156
##イ
how
cpi
591
2765
gov
kg
joe
##xx
mandy
pa
##ser
copyright
fashion
1935
don
##け
ecu
##ist
##art
erp
wap
have
##lm
talk
##ek
##ning
##if
ch
##ite
video
1943
cs
san
iot
look
##84
##2010
##ku
october
##ux
trump
##hs
##ide
box
141
first
##ins
april
##ight
##83
185
angel
protected
aa
151
162
x1
m2
##fe
##×
##ho
size
143
min
ofo
fun
gomaji
ex
hdmi
food
dns
march
chris
kevin
##のか
##lla
##pp
##ec
ag
ems
6s
720p
##rm
##ham
off
##92
asp
team
fandom
ed
299
▌♥
##ell
info
されています
##82
sina
4066
161
##able
##ctor
330
399
315
dll
rights
ltd
idc
jul
3kg
1927
142
ma
surface
##76
##ク
～～～
304
mall
eps
146
green
##59
map
space
donald
v2
sodu
##light
1931
148
1700
まて
310
reserved
htm
##han
##57
2d
178
mod
##ise
##tions
152
ti
##shi
doc
1933
icp
055
wang
##ram
shopping
aug
##pi
##well
now
wam
b2
からお
##hu
236
1928
##gb
266
f2
##93
153
mix
##ef
##uan
bwl
##plus
##res
core
##ess
tea
5℃
hktvmall
nhk
##ate
list
##ese
301
feb
4m
inn
ての
nov
159
12345
daniel
##ci
pass
##bet
##nk
coffee
202
ssl
airbnb
##ute
fbi
woshipm
skype
ea
cg
sp
##fc
##www
yes
edge
alt
007
##94
fpga
##ght
##gs
iso9001
さい
##ile
##wood
##uo
image
lin
icon
american
##em
1932
set
says
##king
##tive
blogger
##74
なと
256
147
##ox
##zy
##red
##ium
##lf
nokia
claire
##リ
##ding
november
lohas
##500
##tic
##マ
##cs
##ある
##che
##ire
##gy
##ult
db
january
win
##カ
166
road
ptt
##ま
##つ
198
##fa
##mer
anna
pchome
はい
udn
ef
420
##time
##tte
2030
##ア
g20
white
かかります
1929
308
garden
eleven
di
##おります
chen
309b
777
172
young
cosplay
ちてない
4500
bat
##123
##tra
##ては
kindle
npc
steve
etc
##ern
##｜
call
xperia
ces
travel
sk
s7
##ous
1934
##int
みいたたけます
183
edu
file
cho
qr
##car
##our
186
##ant
##ｄ
eric
1914
rends
##jo
##する
mastercard
##2000
kb
##min
290
##ino
vista
##ris
##ud
jack
2400
##set
169
pos
1912
##her
##ou
taipei
しく
205
beta
##ませんか
232
##fi
express
255
body
##ill
aphojoy
user
december
meiki
##ick
tweet
richard
##av
##ᆫ
iphone6
##dd
ちてすか
views
##mark
321
pd
##００
times
##▲
level
##ash
10g
point
5l
##ome
208
koreanmall
##ak
george
q2
206
wma
tcp
##200
スタッフ
full
mlb
##lle
##watch
tm
run
179
911
smith
business
##und
1919
color
##tal
222
171
##less
moon
4399
##rl
update
pcb
shop
499
157
little
なし
end
##mhz
van
dsp
easy
660
##house
##key
history
##ｏ
oh
##001
##hy
##web
oem
let
was
##2009
##gg
review
##wan
182
##°c
203
uc
title
##val
united
233
2021
##ons
doi
trivago
overdope
sbs
##ance
##ち
grand
special
573032185
imf
216
wx17house
##so
##ーム
audi
##he
london
william
##rp
##ake
science
beach
cfa
amp
ps4
880
##800
##link
##hp
crm
ferragamo
bell
make
##eng
195
under
zh
photos
2300
##style
##ント
via
176
da
##gi
company
i7
##ray
thomas
370
ufo
i5
##max
plc
ben
back
research
8g
173
mike
##pc
##ッフ
september
189
##ace
vps
february
167
pantos
wp
lisa
1921
★★
jquery
night
long
offer
##berg
##news
1911
##いて
ray
fks
wto
せます
over
164
340
##all
##rus
1924
##888
##works
blogtitle
loftpermalink
##→
187
martin
test
ling
km
##め
15000
fda
v3
##ja
##ロ
ｗedding
かある
outlet
family
##ea
をこ
##top
story
##ness
salvatore
##lu
204
swift
215
room
している
oracle
##ul
1925
sam
b2c
week
pi
rock
##のは
##ａ
##けと
##ean
##300
##gle
cctv
after
chinese
##back
powered
x2
##tan
1918
##nes
##イン
canon
only
181
##zi
##las
say
##oe
184
##sd
221
##bot
##world
##zo
sky
made
top100
just
1926
pmi
802
234
gap
##vr
177
les
174
▲topoct
ball
vogue
vi
ing
ofweek
cos
##list
##ort
▲topmay
##なら
##lon
として
last
##tc
##of
##bus
##gen
real
eva
##コ
a3
nas
##lie
##ria
##coin
##bt
▲topapr
his
212
cat
nata
vive
health
⋯⋯
drive
sir
▲topmar
du
cup
##カー
##ook
##よう
##sy
alex
msg
tour
しました
3ce
##word
193
ebooks
r8
block
318
##より
2200
nice
pvp
207
months
1905
rewards
##ther
1917
0800
##xi
##チ
##sc
micro
850
gg
blogfp
op
1922
daily
m1
264
true
##bb
ml
##tar
##のお
##ky
anthony
196
253
##yo
state
218
##ara
##aa
##rc
##tz
##ston
より
gear
##eo
##ade
ge
see
1923
##win
##ura
ss
heart
##den
##ita
down
##sm
el
png
2100
610
rakuten
whatsapp
bay
dream
add
##use
680
311
pad
gucci
mpv
##ode
##fo
island
▲topjun
##▼
223
jason
214
chicago
##❤
しの
##hone
io
##れる
##ことか
sogo
be2
##ology
990
cloud
vcd
##con
2～3
##ford
##joy
##kb
##こさいます
##rade
but
##ach
docker
##ful
rfid
ul
##ase
hit
ford
##star
580
##○
１１
a2
sdk
reading
edited
##are
cmos
##mc
238
siri
light
##ella
##ため
bloomberg
##read
pizza
##ison
jimmy
##vm
college
node
journal
ba
18k
##play
245
##cer
２０
magic
##yu
191
jump
288
tt
##ings
asr
##lia
3200
step5
network
##cd
mc
いします
1234
pixstyleme
273
##600
2800
money
★★★★★
1280
１２
430
bl
みの
act
##tus
tokyo
##rial
##life
emba
##ae
saas
tcs
##rk
##wang
summer
##sp
ko
##ving
390
premium
##その
netflix
##ヒ
uk
mt
##lton
right
frank
two
209
える
##ple
##cal
021
##んな
##sen
##ville
hold
nexus
dd
##ius
てお
##mah
##なく
tila
zero
820
ce
##tin
resort
##ws
charles
old
p10
5d
report
##360
##ru
##には
bus
vans
lt
##est
pv
##レ
links
rebecca
##ツ
##dm
azure
##365
きな
limited
bit
4gb
##mon
1910
moto
##eam
213
1913
var
eos
なとの
226
blogspot
された
699
e3
dos
dm
fc
##ments
##ik
##kw
boy
##bin
##ata
960
er
##せ
219
##vin
##tu
##ula
194
##∥
station
##ろ
##ature
835
files
zara
hdr
top10
nature
950
magazine
s6
marriott
##シ
avira
case
##っと
tab
##ran
tony
##home
oculus
im
##ral
jean
saint
cry
307
rosie
##force
##ini
ice
##bert
のある
##nder
##mber
pet
2600
##◆
plurk
▲topdec
##sis
00kg
▲topnov
720
##ence
tim
##ω
##nc
##ても
##name
log
ips
great
ikea
malaysia
unix
##イト
3600
##ncy
##nie
12000
akb48
##ye
##oid
404
##chi
##いた
oa
xuehai
##1000
##orm
##rf
275
さん
##ware
##リー
980
ho
##pro
text
##era
560
bob
227
##ub
##2008
8891
scp
avi
##zen
2022
mi
wu
museum
qvod
apache
lake
jcb
▲topaug
★★★
ni
##hr
hill
302
ne
weibo
490
ruby
##ーシ
##ヶ
##row
4d
▲topjul
iv
##ish
github
306
mate
312
##スト
##lot
##ane
andrew
のハイト
##tina
t1
rf
ed2k
##vel
##900
way
final
りの
ns
5a
705
197
##メ
sweet
bytes
##ene
▲topjan
231
##cker
##2007
##px
100g
topapp
229
helpapp
rs
low
14k
g4g
care
630
ldquo
あり
##fork
leave
rm
edition
##gan
##zon
##qq
▲topsep
##google
##ism
gold
224
explorer
##zer
toyota
category
select
visual
##labels
restaurant
##md
posts
s1
##ico
もっと
angelababy
123456
217
sports
s3
mbc
1915
してくたさい
shell
x86
candy
##new
kbs
face
xl
470
##here
4a
swissinfo
v8
▲topfeb
dram
##ual
##vice
3a
##wer
sport
q1
ios10
public
int
card
##ｃ
ep
au
rt
##れた
1080
bill
##mll
kim
３０
460
wan
##uk
##ミ
x3
298
0t
scott
##ming
239
e5
##3d
h7n9
worldcat
brown
##あります
##vo
##led
##580
##ax
249
410
##ert
paris
##～6
polo
925
##lr
599
##ナ
capital
##hing
bank
cv
1g
##chat
##ｓ
##たい
adc
##ule
2m
##ｅ
digital
hotmail
268
##pad
870
bbq
quot
##ring
before
wali
##まて
mcu
2k
2b
という
costco
316
north
333
switch
##city
##ｐ
philips
##mann
management
panasonic
##cl
##vd
##ping
##rge
alice
##lk
##ましょう
css3
##ney
vision
alpha
##ular
##400
##tter
lz
にお
##ありません
mode
gre
1916
pci
##tm
237
1～2
##yan
##そ
について
##let
##キ
work
war
coach
ah
mary
##ᅵ
huang
##pt
a8
pt
follow
##berry
1895
##ew
a5
ghost
##ション
##wn
##og
south
##code
girls
##rid
action
villa
git
r11
table
games
##cket
error
##anonymoussaid
##ag
here
##ame
##gc
qa
##■
##lis
gmp
##gin
vmalife
##cher
yu
wedding
##tis
demo
dragon
530
soho
social
bye
##rant
river
orz
acer
325
##↑
##ース
##ats
261
del
##ven
440
ups
##ように
##ター
305
value
macd
yougou
##dn
661
##ano
ll
##urt
##rent
continue
script
##wen
##ect
paper
263
319
shift
##chel
##フト
##cat
258
x5
fox
243
##さん
car
aaa
##blog
loading
##yn
##tp
kuso
799
si
sns
イカせるテンマ
ヒンクテンマ3
rmb
vdc
forest
central
prime
help
ultra
##rmb
##ような
241
square
688
##しい
のないフロクに
##field
##reen
##ors
##ju
c1
start
510
##air
##map
cdn
##wo
cba
stephen
m8
100km
##get
opera
##base
##ood
vsa
com™
##aw
##ail
251
なのて
count
t2
##ᅡ
##een
2700
hop
##gp
vsc
tree
##eg
##ose
816
285
##ories
##shop
alphago
v4
1909
simon
##ᆼ
fluke62max
zip
スホンサー
##sta
louis
cr
bas
##～10
bc
##yer
hadoop
##ube
##wi
1906
0755
hola
##low
place
centre
5v
d3
##fer
252
##750
##media
281
540
0l
exchange
262
series
##ハー
##san
eb
##bank
##ｋ
q3
##nge
##mail
take
##lp
259
1888
client
east
cache
event
vincent
##ールを
きを
##nse
sui
855
adchoice
##и
##stry
##なたの
246
##zone
ga
apps
sea
##ab
248
cisco
##タ
##rner
kymco
##care
dha
##pu
##yi
minkoff
royal
p1
への
annie
269
collection
kpi
playstation
257
になります
866
bh
##bar
queen
505
radio
1904
andy
armani
##xy
manager
iherb
##ery
##share
spring
raid
johnson
1908
##ob
volvo
hall
##ball
v6
our
taylor
##hk
bi
242
##cp
kate
bo
water
technology
##rie
サイトは
277
##ona
##sl
hpv
303
gtx
hip
rdquo
jayz
stone
##lex
##rum
namespace
##やり
620
##ale
##atic
des
##erson
##ql
##ves
##type
enter
##この
##てきます
d2
##168
##mix
##bian
との
a9
jj
ky
##lc
access
movie
##hc
リストに
tower
##ration
##mit
ます
##nch
ua
tel
prefix
##o2
1907
##point
1901
ott
～10
##http
##ury
baidu
##ink
member
##logy
bigbang
nownews
##js
##shot
##tb
##こと
247
eba
##tics
##lus
ける
v5
spark
##ama
there
##ions
god
##lls
##down
hiv
##ress
burberry
day2
##kv
◆◆
jeff
related
film
edit
joseph
283
##ark
cx
32gb
order
g9
30000
##ans
##tty
s5
##bee
かあります
thread
xr
buy
sh
005
land
spotify
mx
##ari
276
##verse
×email
sf
why
##ことて
244
7headlines
nego
sunny
dom
exo
401
666
positioning
fit
rgb
##tton
278
kiss
alexa
adam
lp
みリストを
##ｇ
mp
##ties
##llow
amy
##du
np
002
institute
271
##rth
##lar
2345
590
##des
sidebar
１５
imax
site
##cky
##kit
##ime
##009
season
323
##fun
##ンター
##ひ
gogoro
a7
pu
lily
fire
twd600
##ッセーシを
いて
##vis
30ml
##cture
##をお
information
##オ
close
friday
##くれる
yi
nick
てすか
##tta
##tel
6500
##lock
cbd
economy
254
かお
267
tinker
double
375
8gb
voice
##app
oops
channel
today
985
##right
raw
xyz
##＋
jim
edm
##cent
7500
supreme
814
ds
##its
##asia
dropbox
##てすか
##tti
books
272
100ml
##tle
##ller
##ken
##more
##boy
sex
309
##dom
t3
##ider
##なります
##unch
1903
810
feel
5500
##かった
##put
により
s2
mo
##gh
men
ka
amoled
div
##tr
##n1
port
howard
##tags
ken
dnf
##nus
adsense
##а
ide
##へ
buff
thunder
##town
##ique
has
##body
auto
pin
##erry
tee
てした
295
number
##the
##013
object
psp
cool
udnbkk
16gb
##mic
miui
##tro
most
r2
##alk
##nity
1880
±0
##いました
428
s4
law
version
##oa
n1
sgs
docomo
##tf
##ack
henry
fc2
##ded
##sco
##014
##rite
286
0mm
linkedin
##ada
##now
wii
##ndy
ucbug
##◎
sputniknews
legalminer
##ika
##xp
2gb
##bu
q10
oo
b6
come
##rman
cheese
ming
maker
##gm
nikon
##fig
ppi
kelly
##ります
jchere
てきます
ted
md
003
fgo
tech
##tto
dan
soc
##gl
##len
hair
earth
640
521
img
##pper
##a1
##てきる
##ロク
acca
##ition
##ference
suite
##ig
outlook
##mond
##cation
398
##pr
279
101vip
358
##999
282
64gb
3800
345
airport
##over
284
##おり
jones
##ith
lab
##su
##いるのて
co2
town
piece
##llo
no1
vmware
24h
##qi
focus
reader
##admin
##ora
tb
false
##log
1898
know
lan
838
##ces
f4
##ume
motel
stop
##oper
na
flickr
netcomponents
##af
##─
pose
williams
local
##ound
##cg
##site
##iko
いお
274
5m
gsm
con
##ath
1902
friends
##hip
cell
317
##rey
780
cream
##cks
012
##dp
facebooktwitterpinterestgoogle
sso
324
shtml
song
swiss
##mw
##キンク
lumia
xdd
string
tiffany
522
marc
られた
insee
russell
sc
dell
##ations
ｏｋ
camera
289
##vs
##flow
##late
classic
287
##nter
stay
g1
mtv
512
##ever
##lab
##nger
qe
sata
ryan
d1
50ml
cms
##cing
su
292
3300
editor
296
##nap
security
sunday
association
##ens
##700
##bra
acg
##かり
sofascore
とは
mkv
##ign
jonathan
gary
build
labels
##oto
tesla
moba
qi
gohappy
general
ajax
1024
##かる
サイト
society
##test
##urs
wps
fedora
##ich
mozilla
328
##480
##dr
usa
urn
##lina
##ｒ
grace
##die
##try
##ader
1250
##なり
elle
570
##chen
##ᆯ
price
##ten
uhz
##ough
eq
##hen
states
push
session
balance
wow
506
##cus
##py
when
##ward
##ep
34e
wong
library
prada
##サイト
##cle
running
##ree
313
ck
date
q4
##ctive
##ool
##＞
mk
##ira
##163
388
die
secret
rq
dota
buffet
は１ヶ
e6
##ez
pan
368
ha
##card
##cha
2a
##さ
alan
day3
eye
f3
##end
france
keep
adi
rna
tvbs
##ala
solo
nova
##え
##tail
##ょう
support
##ries
##なる
##ved
base
copy
iis
fps
##ways
hero
hgih
profile
fish
mu
ssh
entertainment
chang
##wd
click
cake
##ond
pre
##tom
kic
pixel
##ov
##fl
product
6a
##pd
dear
##gate
es
yumi
audio
##²
##sky
echo
bin
where
##ture
329
##ape
find
sap
isis
##なと
nand
##101
##load
##ream
band
a6
525
never
##post
festival
50cm
##we
555
guide
314
zenfone
##ike
335
gd
forum
jessica
strong
alexander
##ould
software
allen
##ious
program
360°
else
lohasthree
##gar
することかてきます
please
##れます
rc
##ggle
##ric
bim
50000
##own
eclipse
355
brian
3ds
##side
061
361
##other
##ける
##tech
##ator
485
engine
##ged
##ｔ
plaza
##fit
cia
ngo
westbrook
shi
tbs
50mm
##みませんか
sci
291
reuters
##ily
contextlink
##hn
af
##cil
bridge
very
##cel
1890
cambridge
##ize
15g
##aid
##data
790
frm
##head
award
butler
##sun
meta
##mar
america
ps3
puma
pmid
##すか
lc
670
kitchen
##lic
オーフン5
きなしソフトサーヒス
そして
day1
future
★★★★
##text
##page
##rris
pm1
##ket
fans
##っています
1001
christian
bot
kids
trackback
##hai
c3
display
##hl
n2
1896
idea
さんも
##sent
airmail
##ug
##men
pwm
けます
028
##lution
369
852
awards
schemas
354
asics
wikipedia
font
##tional
##vy
c2
293
##れている
##dget
##ein
っている
contact
pepper
スキル
339
##～5
294
##uel
##ument
730
##hang
みてす
q5
##sue
rain
##ndi
wei
swatch
##cept
わせ
331
popular
##ste
##tag
p2
501
trc
1899
##west
##live
justin
honda
ping
messenger
##rap
v9
543
##とは
unity
appqq
はすへて
025
leo
##tone
##テ
##ass
uniqlo
##010
502
her
jane
memory
moneydj
##tical
human
12306
していると
##m2
coc
miacare
##mn
tmt
##core
vim
kk
##may
fan
target
use
too
338
435
2050
867
737
fast
##2c
services
##ope
omega
energy
##わ
pinkoi
1a
##なから
##rain
jackson
##ement
##シャンルの
374
366
そんな
p9
rd
##ᆨ
1111
##tier
##vic
zone
##│
385
690
dl
isofix
cpa
m4
322
kimi
めて
davis
##lay
lulu
##uck
050
weeks
qs
##hop
920
##ｎ
ae
##ear
～5
eia
405
##fly
korea
jpeg
boost
##ship
small
##リア
1860
eur
297
425
valley
##iel
simple
##ude
rn
k2
##ena
されます
non
patrick
しているから
##ナー
feed
5757
30g
process
well
qqmei
##thing
they
aws
lu
pink
##ters
##kin
または
board
##vertisement
wine
##ien
unicode
##dge
r1
359
##tant
いを
##twitter
##3c
cool1
される
##れて
##ｌ
isp
##012
standard
45㎡2
402
##150
matt
##fu
326
##iner
googlemsn
pixnetfacebookyahoo
##ラン
x7
886
##uce
メーカー
sao
##ev
##きました
##file
9678
403
xddd
shirt
6l
##rio
##hat
3mm
givenchy
ya
bang
##lio
monday
crystal
ロクイン
##abc
336
head
890
ubuntuforumwikilinuxpastechat
##vc
##～20
##rity
cnc
7866
ipv6
null
1897
##ost
yang
imsean
tiger
##fet
##ンス
352
##＝
dji
327
ji
maria
##come
##んて
foundation
3100
##beth
##なった
1m
601
active
##aft
##don
3p
sr
349
emma
##khz
living
415
353
1889
341
709
457
sas
x6
##face
pptv
x4
##mate
han
sophie
##jing
337
fifa
##mand
other
sale
inwedding
##gn
てきちゃいます
##mmy
##pmlast
bad
nana
nbc
してみてくたさいね
なとはお
##wu
##かあります
##あ
note7
single
##340
せからこ
してくたさい♪この
しにはとんとんワークケートを
するとあなたにもっとマッチした
ならワークケートへ
もみつかっちゃうかも
ワークケートの
##bel
window
##dio
##ht
union
age
382
１４
##ivity
##ｙ
コメント
domain
neo
##isa
##lter
5k
f5
steven
##cts
powerpoint
tft
self
g2
ft
##テル
zol
##act
mwc
381
343
もう
nbapop
408
てある
eds
ace
##room
previous
author
tomtom
il
##ets
hu
financial
☆☆☆
っています
bp
5t
chi
1gb
##hg
fairmont
cross
008
gay
h2
function
##けて
356
also
1b
625
##ータ
##raph
1894
3～5
##ils
i3
334
avenue
##host
による
##bon
##tsu
message
navigation
50g
fintech
h6
##ことを
8cm
##ject
##vas
##firm
credit
##wf
xxxx
form
##nor
##space
huawei
plan
json
sbl
##dc
machine
921
392
wish
##120
##sol
windows7
edward
##ために
development
washington
##nsis
lo
818
##sio
##ym
##bor
planet
##～8
##wt
ieee
gpa
##めて
camp
ann
gm
##tw
##oka
connect
##rss
##work
##atus
wall
chicken
soul
2mm
##times
fa
##ather
##cord
009
##eep
hitachi
gui
harry
##pan
e1
disney
##press
##ーション
wind
386
frigidaire
##tl
liu
hsu
332
basic
von
ev
いた
てきる
スホンサーサイト
learning
##ull
expedia
archives
change
##wei
santa
cut
ins
6gb
turbo
brand
cf1
508
004
return
747
##rip
h1
##nis
##をこ
128gb
##にお
3t
application
しており
emc
rx
##oon
384
quick
412
15058
wilson
wing
chapter
##bug
beyond
##cms
##dar
##oh
zoom
e2
trip
sb
##nba
rcep
342
aspx
ci
080
gc
gnu
める
##count
advanced
dance
dv
##url
##ging
367
8591
am09
shadow
battle
346
##ｉ
##cia
##という
emily
##のてす
##tation
host
ff
techorz
sars
##mini
##mporary
##ering
nc
4200
798
##next
cma
##mbps
##gas
##ift
##dot
##ィ
455
##～17
amana
##りの
426
##ros
ir
00㎡1
##eet
##ible
##↓
710
ˋ▽ˊ
##aka
dcs
iq
##ｖ
l1
##lor
maggie
##011
##iu
588
##～1
830
##gt
1tb
articles
create
##burg
##iki
database
fantasy
##rex
##cam
dlc
dean
##you
hard
path
gaming
victoria
maps
cb
##lee
##itor
overchicstoretvhome
systems
##xt
416
p3
sarah
760
##nan
407
486
x9
install
second
626
##ann
##ph
##rcle
##nic
860
##nar
ec
##とう
768
metro
chocolate
##rian
～4
##table
##しています
skin
##sn
395
mountain
##0mm
inparadise
6m
7x24
ib
4800
##jia
eeworld
creative
g5
g3
357
parker
ecfa
village
からの
18000
sylvia
サーヒス
hbl
##ques
##onsored
##x2
##きます
##v4
##tein
ie6
383
##stack
389
ver
##ads
##baby
sound
bbe
##110
##lone
##uid
ads
022
gundam
351
thinkpad
006
scrum
match
##ave
mems
##470
##oy
##なりました
##talk
glass
lamigo
span
##eme
job
##a5
jay
wade
kde
498
##lace
ocean
tvg
##covery
##r3
##ners
##rea
junior
think
##aine
cover
##ision
##sia
↓↓
##bow
msi
413
458
406
##love
711
801
soft
z2
##pl
456
1840
mobil
mind
##uy
427
nginx
##oi
めた
##rr
6221
##mple
##sson
##ーシてす
371
##nts
91tv
comhd
crv3000
##uard
1868
397
deep
lost
field
gallery
##bia
rate
spf
redis
traction
930
icloud
011
なら
fe
jose
372
##tory
into
sohu
fx
899
379
kicstart2
##hia
すく
##～3
##sit
ra
２４
##walk
##xure
500g
##pact
pacific
xa
natural
carlo
##250
##walker
1850
##can
cto
gigi
516
##サー
pen
##hoo
ob
matlab
##ｂ
##yy
13913459
##iti
mango
##bbs
sense
c5
oxford
##ニア
walker
jennifer
##ola
course
##bre
701
##pus
##rder
lucky
075
##ぁ
ivy
なお
##nia
sotheby
side
##ugh
joy
##orage
##ush
##bat
##dt
364
r9
##2d
##gio
511
country
wear
##lax
##～7
##moon
393
seven
study
411
348
lonzo
8k
##ェ
evolution
##イフ
##kk
gs
kd
##レス
arduino
344
b12
##lux
arpg
##rdon
cook
##x5
dark
five
##als
##ida
とても
sign
362
##ちの
something
20mm
##nda
387
##posted
fresh
tf
1870
422
cam
##mine
##skip
##form
##ssion
education
394
##tee
dyson
stage
##jie
want
##night
epson
pack
あります
##ppy
テリヘル
##█
wd
##eh
##rence
left
##lvin
golden
mhz
discovery
##trix
##n2
loft
##uch
##dra
##sse
speed
～1
1mdb
sorry
welcome
##urn
wave
gaga
##lmer
teddy
##160
トラックハック
せよ
611
##f2016
378
rp
##sha
rar
##あなたに
##きた
840
holiday
##ュー
373
074
##vg
##nos
##rail
gartner
gi
6p
##dium
kit
488
b3
eco
##ろう
20g
sean
##stone
autocad
nu
##np
f16
write
029
m5
##ias
images
atp
##dk
fsm
504
1350
ve
52kb
##xxx
##のに
##cake
414
unit
lim
ru
1v
##ification
published
angela
16g
analytics
ak
##ｑ
##nel
gmt
##icon
again
##₂
##bby
ios11
445
かこさいます
waze
いてす
##ハ
9985
##ust
##ティー
framework
##007
iptv
delete
52sykb
cl
wwdc
027
30cm
##fw
##ての
1389
##xon
brandt
##ses
##dragon
tc
vetements
anne
monte
modern
official
##へて
##ere
##nne
##oud
もちろん
５０
etnews
##a2
##graphy
421
863
##ちゃん
444
##rtex
##てお
l2
##gma
mount
ccd
たと
archive
morning
tan
ddos
e7
##ホ
day4
##ウ
gis
453
its
495
factory
bruce
pg
##ito
ってくたさい
guest
cdma
##lling
536
n3
しかし
3～4
mega
eyes
ro
１３
women
dac
church
##jun
singapore
##facebook
6991
starbucks
##tos
##stin
##shine
zen
##mu
tina
20℃
1893
##たけて
503
465
request
##gence
qt
##っ
1886
347
363
q7
##zzi
diary
##tore
409
##ead
468
cst
##osa
canada
agent
va
##jiang
##ちは
##ーク
##lam
sg
##nix
##sday
##よって
g6
##master
bing
##zl
charlie
１６
8mm
nb40
##ーン
thai
##ルフ
ln284ct
##itz
##2f
bonnie
##food
##lent
originals
##stro
##lts
418
∟∣
##bscribe
children
ntd
yesstyle
##かも
hmv
##tment
d5
2cm
arts
sms
##pn
##я
##いい
topios9
539
lifestyle
virtual
##ague
xz
##deo
muji
024
unt
##nnis
##ᅩ
faq1
1884
396
##ette
fly
64㎡
はしめまして
441
curry
##pop
のこ
release
##←
##◆◆
##cast
073
ありな
500ml
##ews
5c
##stle
ios7
##ima
787
dog
lenovo
##r4
roger
013
cbs
vornado
100m
417
##desk
##クok
##ald
1867
9595
2900
##van
oil
##ｘ
some
break
common
##jy
##lines
g7
twice
419
ella
nano
belle
にこ
##mes
##self
##note
jb
##ことかてきます
benz
##との
##ova
451
save
##wing
##ますのて
kai
りは
##hua
##rect
rainer
##unge
448
##0m
adsl
##かな
guestname
##uma
##kins
##zu
tokichoi
##price
county
##med
##mus
rmk
391
address
vm
えて
openload
##group
##hin
##iginal
amg
urban
##oz
jobs
emi
##public
beautiful
##sch
album
##dden
##bell
jerry
works
hostel
miller
##drive
##rmin
##１０
376
boot
828
##370
##fx
##cm～
1885
##nome
##ctionary
##oman
##lish
##cr
##hm
433
##how
432
francis
xi
c919
b5
evernote
##uc
vga
##3000
coupe
##urg
##cca
##uality
019
6g
れる
multi
##また
##ett
em
hey
##ani
##tax
##rma
inside
than
740
leonnhurt
##jin
ict
れた
bird
notes
200mm
くの
##dical
##lli
result
442
iu
ee
438
smap
gopro
##last
yin
pure
998
32g
けた
5kg
##dan
##rame
mama
##oot
bean
marketing
##hur
2l
bella
sync
xuite
##ground
515
discuz
##getrelax
##ince
##bay
##5s
cj
##イス
gmat
apt
##pass
jing
##rix
c4
rich
##とても
niusnews
##ello
bag
770
##eting
##mobile
１８
culture
015
##のてすか
377
1020
area
##ience
616
details
gp
universal
silver
dit
はお
private
ddd
u11
kanshu
##ified
fung
##nny
dx
##520
tai
475
023
##fr
##lean
3s
##pin
429
##rin
25000
ly
rick
##bility
usb3
banner
##baru
##gion
metal
dt
vdf
1871
karl
qualcomm
bear
1010
oldid
ian
jo
##tors
population
##ernel
1882
mmorpg
##mv
##bike
603
##©
ww
friend
##ager
exhibition
##del
##pods
fpx
structure
##free
##tings
kl
##rley
##copyright
##mma
california
3400
orange
yoga
4l
canmake
honey
##anda
##コメント
595
nikkie
##ルハイト
dhl
publishing
##mall
##gnet
20cm
513
##クセス
##┅
e88
970
##dog
fishbase
##!
##"
###
##$
##%
##&
##'
##(
##)
##*
##+
##,
##-
##.
##/
##:
##;
##<
##=
##>
##?
##@
##[
##\
##]
##^
##_
##{
##|
##}
##~
##£
##¤
##¥
##§
##«
##±
##³
##µ
##·
##¹
##º
##»
##¼
##ß
##æ
##÷
##ø
##đ
##ŋ
##ɔ
##ə
##ɡ
##ʰ
##ˇ
##ˈ
##ˊ
##ˋ
##ˍ
##ː
##˙
##˚
##ˢ
##α
##β
##γ
##δ
##ε
##η
##θ
##ι
##κ
##λ
##μ
##ν
##ο
##π
##ρ
##ς
##σ
##τ
##υ
##φ
##χ
##ψ
##б
##в
##г
##д
##е
##ж
##з
##к
##л
##м
##н
##о
##п
##р
##с
##т
##у
##ф
##х
##ц
##ч
##ш
##ы
##ь
##і
##ا
##ب
##ة
##ت
##د
##ر
##س
##ع
##ل
##م
##ن
##ه
##و
##ي
##۩
##ก
##ง
##น
##ม
##ย
##ร
##อ
##า
##เ
##๑
##་
##ღ
##ᄀ
##ᄁ
##ᄂ
##ᄃ
##ᄅ
##ᄆ
##ᄇ
##ᄈ
##ᄉ
##ᄋ
##ᄌ
##ᄎ
##ᄏ
##ᄐ
##ᄑ
##ᄒ
##ᅢ
##ᅣ
##ᅥ
##ᅦ
##ᅧ
##ᅨ
##ᅪ
##ᅬ
##ᅭ
##ᅮ
##ᅯ
##ᅲ
##ᅳ
##ᅴ
##ᆷ
##ᆸ
##ᆺ
##ᆻ
##ᗜ
##ᵃ
##ᵉ
##ᵍ
##ᵏ
##ᵐ
##ᵒ
##ᵘ
##‖
##„
##†
##•
##‥
##‧
##
##‰
##′
##″
##‹
##›
##※
##‿
##⁄
##ⁱ
##⁺
##ⁿ
##₁
##₃
##₄
##€
##№
##ⅰ
##ⅱ
##ⅲ
##ⅳ
##ⅴ
##↔
##↗
##↘
##⇒
##∀
##−
##∕
##∙
##√
##∞
##∟
##∠
##∣
##∩
##∮
##∶
##∼
##∽
##≈
##≒
##≡
##≤
##≥
##≦
##≧
##≪
##≫
##⊙
##⋅
##⋈
##⋯
##⌒
##①
##②
##③
##④
##⑤
##⑥
##⑦
##⑧
##⑨
##⑩
##⑴
##⑵
##⑶
##⑷
##⑸
##⒈
##⒉
##⒊
##⒋
##ⓒ
##ⓔ
##ⓘ
##━
##┃
##┆
##┊
##┌
##└
##├
##┣
##═
##║
##╚
##╞
##╠
##╭
##╮
##╯
##╰
##╱
##╳
##▂
##▃
##▅
##▇
##▉
##▋
##▌
##▍
##▎
##□
##▪
##▫
##▬
##△
##▶
##►
##▽
##◇
##◕
##◠
##◢
##◤
##☀
##☕
##☞
##☺
##☼
##♀
##♂
##♠
##♡
##♣
##♦
##♫
##♬
##✈
##✔
##✕
##✖
##✦
##✨
##✪
##✰
##✿
##❀
##➜
##➤
##⦿
##、
##。
##〃
##々
##〇
##〈
##〉
##《
##》
##「
##」
##『
##』
##【
##】
##〓
##〔
##〕
##〖
##〗
##〜
##〝
##〞
##ぃ
##ぇ
##ぬ
##ふ
##ほ
##む
##ゃ
##ゅ
##ゆ
##ょ
##゜
##ゝ
##ァ
##ゥ
##エ
##ォ
##ケ
##サ
##セ
##ソ
##ッ
##ニ
##ヌ
##ネ
##ノ
##ヘ
##モ
##ャ
##ヤ
##ュ
##ユ
##ョ
##ヨ
##ワ
##ヲ
##・
##ヽ
##ㄅ
##ㄆ
##ㄇ
##ㄉ
##ㄋ
##ㄌ
##ㄍ
##ㄎ
##ㄏ
##ㄒ
##ㄚ
##ㄛ
##ㄞ
##ㄟ
##ㄢ
##ㄤ
##ㄥ
##ㄧ
##ㄨ
##ㆍ
##㈦
##㊣
##㗎
##一
##丁
##七
##万
##丈
##三
##上
##下
##不
##与
##丐
##丑
##专
##且
##丕
##世
##丘
##丙
##业
##丛
##东
##丝
##丞
##丟
##両
##丢
##两
##严
##並
##丧
##丨
##个
##丫
##中
##丰
##串
##临
##丶
##丸
##丹
##为
##主
##丼
##丽
##举
##丿
##乂
##乃
##久
##么
##义
##之
##乌
##乍
##乎
##乏
##乐
##乒
##乓
##乔
##乖
##乗
##乘
##乙
##乜
##九
##乞
##也
##习
##乡
##书
##乩
##买
##乱
##乳
##乾
##亀
##亂
##了
##予
##争
##事
##二
##于
##亏
##云
##互
##五
##井
##亘
##亙
##亚
##些
##亜
##亞
##亟
##亡
##亢
##交
##亥
##亦
##产
##亨
##亩
##享
##京
##亭
##亮
##亲
##亳
##亵
##人
##亿
##什
##仁
##仃
##仄
##仅
##仆
##仇
##今
##介
##仍
##从
##仏
##仑
##仓
##仔
##仕
##他
##仗
##付
##仙
##仝
##仞
##仟
##代
##令
##以
##仨
##仪
##们
##仮
##仰
##仲
##件
##价
##任
##份
##仿
##企
##伉
##伊
##伍
##伎
##伏
##伐
##休
##伕
##众
##优
##伙
##会
##伝
##伞
##伟
##传
##伢
##伤
##伦
##伪
##伫
##伯
##估
##伴
##伶
##伸
##伺
##似
##伽
##佃
##但
##佇
##佈
##位
##低
##住
##佐
##佑
##体
##佔
##何
##佗
##佘
##余
##佚
##佛
##作
##佝
##佞
##佟
##你
##佢
##佣
##佤
##佥
##佩
##佬
##佯
##佰
##佳
##併
##佶
##佻
##佼
##使
##侃
##侄
##來
##侈
##例
##侍
##侏
##侑
##侖
##侗
##供
##依
##侠
##価
##侣
##侥
##侦
##侧
##侨
##侬
##侮
##侯
##侵
##侶
##侷
##便
##係
##促
##俄
##俊
##俎
##俏
##俐
##俑
##俗
##俘
##俚
##保
##俞
##俟
##俠
##信
##俨
##俩
##俪
##俬
##俭
##修
##俯
##俱
##俳
##俸
##俺
##俾
##倆
##倉
##個
##倌
##倍
##倏
##們
##倒
##倔
##倖
##倘
##候
##倚
##倜
##借
##倡
##値
##倦
##倩
##倪
##倫
##倬
##倭
##倶
##债
##值
##倾
##偃
##假
##偈
##偉
##偌
##偎
##偏
##偕
##做
##停
##健
##側
##偵
##偶
##偷
##偻
##偽
##偿
##傀
##傅
##傍
##傑
##傘
##備
##傚
##傢
##傣
##傥
##储
##傩
##催
##傭
##傲
##傳
##債
##傷
##傻
##傾
##僅
##働
##像
##僑
##僕
##僖
##僚
##僥
##僧
##僭
##僮
##僱
##僵
##價
##僻
##儀
##儂
##億
##儆
##儉
##儋
##儒
##儕
##儘
##償
##儡
##優
##儲
##儷
##儼
##儿
##兀
##允
##元
##兄
##充
##兆
##兇
##先
##光
##克
##兌
##免
##児
##兑
##兒
##兔
##兖
##党
##兜
##兢
##入
##內
##全
##兩
##八
##公
##六
##兮
##兰
##共
##兲
##关
##兴
##兵
##其
##具
##典
##兹
##养
##兼
##兽
##冀
##内
##円
##冇
##冈
##冉
##冊
##册
##再
##冏
##冒
##冕
##冗
##写
##军
##农
##冠
##冢
##冤
##冥
##冨
##冪
##冬
##冯
##冰
##冲
##决
##况
##冶
##冷
##冻
##冼
##冽
##冾
##净
##凄
##准
##凇
##凈
##凉
##凋
##凌
##凍
##减
##凑
##凛
##凜
##凝
##几
##凡
##凤
##処
##凪
##凭
##凯
##凰
##凱
##凳
##凶
##凸
##凹
##出
##击
##函
##凿
##刀
##刁
##刃
##分
##切
##刈
##刊
##刍
##刎
##刑
##划
##列
##刘
##则
##刚
##创
##初
##删
##判
##別
##刨
##利
##刪
##别
##刮
##到
##制
##刷
##券
##刹
##刺
##刻
##刽
##剁
##剂
##剃
##則
##剉
##削
##剋
##剌
##前
##剎
##剐
##剑
##剔
##剖
##剛
##剜
##剝
##剣
##剤
##剥
##剧
##剩
##剪
##副
##割
##創
##剷
##剽
##剿
##劃
##劇
##劈
##劉
##劊
##劍
##劏
##劑
##力
##劝
##办
##功
##加
##务
##劣
##动
##助
##努
##劫
##劭
##励
##劲
##劳
##労
##劵
##効
##劾
##势
##勁
##勃
##勇
##勉
##勋
##勐
##勒
##動
##勖
##勘
##務
##勛
##勝
##勞
##募
##勢
##勤
##勧
##勳
##勵
##勸
##勺
##勻
##勾
##勿
##匀
##包
##匆
##匈
##匍
##匐
##匕
##化
##北
##匙
##匝
##匠
##匡
##匣
##匪
##匮
##匯
##匱
##匹
##区
##医
##匾
##匿
##區
##十
##千
##卅
##升
##午
##卉
##半
##卍
##华
##协
##卑
##卒
##卓
##協
##单
##卖
##南
##単
##博
##卜
##卞
##卟
##占
##卡
##卢
##卤
##卦
##卧
##卫
##卮
##卯
##印
##危
##即
##却
##卵
##卷
##卸
##卻
##卿
##厂
##厄
##厅
##历
##厉
##压
##厌
##厕
##厘
##厚
##厝
##原
##厢
##厥
##厦
##厨
##厩
##厭
##厮
##厲
##厳
##去
##县
##叁
##参
##參
##又
##叉
##及
##友
##双
##反
##収
##发
##叔
##取
##受
##变
##叙
##叛
##叟
##叠
##叡
##叢
##口
##古
##句
##另
##叨
##叩
##只
##叫
##召
##叭
##叮
##可
##台
##叱
##史
##右
##叵
##叶
##号
##司
##叹
##叻
##叼
##叽
##吁
##吃
##各
##吆
##合
##吉
##吊
##吋
##同
##名
##后
##吏
##吐
##向
##吒
##吓
##吕
##吖
##吗
##君
##吝
##吞
##吟
##吠
##吡
##否
##吧
##吨
##吩
##含
##听
##吭
##吮
##启
##吱
##吳
##吴
##吵
##吶
##吸
##吹
##吻
##吼
##吽
##吾
##呀
##呂
##呃
##呆
##呈
##告
##呋
##呎
##呐
##呓
##呕
##呗
##员
##呛
##呜
##呢
##呤
##呦
##周
##呱
##呲
##味
##呵
##呷
##呸
##呻
##呼
##命
##咀
##咁
##咂
##咄
##咆
##咋
##和
##咎
##咏
##咐
##咒
##咔
##咕
##咖
##咗
##咘
##咙
##咚
##咛
##咣
##咤
##咦
##咧
##咨
##咩
##咪
##咫
##咬
##咭
##咯
##咱
##咲
##咳
##咸
##咻
##咽
##咿
##哀
##品
##哂
##哄
##哆
##哇
##哈
##哉
##哋
##哌
##响
##哎
##哏
##哐
##哑
##哒
##哔
##哗
##哟
##員
##哥
##哦
##哧
##哨
##哩
##哪
##哭
##哮
##哲
##哺
##哼
##哽
##唁
##唄
##唆
##唇
##唉
##唏
##唐
##唑
##唔
##唠
##唤
##唧
##唬
##售
##唯
##唰
##唱
##唳
##唷
##唸
##唾
##啃
##啄
##商
##啉
##啊
##問
##啓
##啕
##啖
##啜
##啞
##啟
##啡
##啤
##啥
##啦
##啧
##啪
##啫
##啬
##啮
##啰
##啱
##啲
##啵
##啶
##啷
##啸
##啻
##啼
##啾
##喀
##喂
##喃
##善
##喆
##喇
##喉
##喊
##喋
##喎
##喏
##喔
##喘
##喙
##喚
##喜
##喝
##喟
##喧
##喪
##喫
##喬
##單
##喰
##喱
##喲
##喳
##喵
##営
##喷
##喹
##喺
##喻
##喽
##嗅
##嗆
##嗇
##嗎
##嗑
##嗒
##嗓
##嗔
##嗖
##嗚
##嗜
##嗝
##嗟
##嗡
##嗣
##嗤
##嗦
##嗨
##嗪
##嗬
##嗯
##嗰
##嗲
##嗳
##嗶
##嗷
##嗽
##嘀
##嘅
##嘆
##嘈
##嘉
##嘌
##嘍
##嘎
##嘔
##嘖
##嘗
##嘘
##嘚
##嘛
##嘜
##嘞
##嘟
##嘢
##嘣
##嘤
##嘧
##嘩
##嘭
##嘮
##嘯
##嘰
##嘱
##嘲
##嘴
##嘶
##嘸
##嘹
##嘻
##嘿
##噁
##噌
##噎
##噓
##噔
##噗
##噙
##噜
##噠
##噢
##噤
##器
##噩
##噪
##噬
##噱
##噴
##噶
##噸
##噹
##噻
##噼
##嚀
##嚇
##嚎
##嚏
##嚐
##嚓
##嚕
##嚟
##嚣
##嚥
##嚨
##嚮
##嚴
##嚷
##嚼
##囂
##囉
##囊
##囍
##囑
##囔
##囗
##囚
##四
##囝
##回
##囟
##因
##囡
##团
##団
##囤
##囧
##囪
##囫
##园
##困
##囱
##囲
##図
##围
##囹
##固
##国
##图
##囿
##圃
##圄
##圆
##圈
##國
##圍
##圏
##園
##圓
##圖
##團
##圜
##土
##圣
##圧
##在
##圩
##圭
##地
##圳
##场
##圻
##圾
##址
##坂
##均
##坊
##坍
##坎
##坏
##坐
##坑
##块
##坚
##坛
##坝
##坞
##坟
##坠
##坡
##坤
##坦
##坨
##坪
##坯
##坳
##坵
##坷
##垂
##垃
##垄
##型
##垒
##垚
##垛
##垠
##垢
##垣
##垦
##垩
##垫
##垭
##垮
##垵
##埂
##埃
##埋
##城
##埔
##埕
##埗
##域
##埠
##埤
##埵
##執
##埸
##培
##基
##埼
##堀
##堂
##堃
##堅
##堆
##堇
##堑
##堕
##堙
##堡
##堤
##堪
##堯
##堰
##報
##場
##堵
##堺
##堿
##塊
##塌
##塑
##塔
##塗
##塘
##塚
##塞
##塢
##塩
##填
##塬
##塭
##塵
##塾
##墀
##境
##墅
##墉
##墊
##墒
##墓
##増
##墘
##墙
##墜
##增
##墟
##墨
##墩
##墮
##墳
##墻
##墾
##壁
##壅
##壆
##壇
##壊
##壑
##壓
##壕
##壘
##壞
##壟
##壢
##壤
##壩
##士
##壬
##壮
##壯
##声
##売
##壳
##壶
##壹
##壺
##壽
##处
##备
##変
##复
##夏
##夔
##夕
##外
##夙
##多
##夜
##够
##夠
##夢
##夥
##大
##天
##太
##夫
##夭
##央
##夯
##失
##头
##夷
##夸
##夹
##夺
##夾
##奂
##奄
##奇
##奈
##奉
##奋
##奎
##奏
##奐
##契
##奔
##奕
##奖
##套
##奘
##奚
##奠
##奢
##奥
##奧
##奪
##奬
##奮
##女
##奴
##奶
##奸
##她
##好
##如
##妃
##妄
##妆
##妇
##妈
##妊
##妍
##妒
##妓
##妖
##妘
##妙
##妝
##妞
##妣
##妤
##妥
##妨
##妩
##妪
##妮
##妲
##妳
##妹
##妻
##妾
##姆
##姉
##姊
##始
##姍
##姐
##姑
##姒
##姓
##委
##姗
##姚
##姜
##姝
##姣
##姥
##姦
##姨
##姪
##姫
##姬
##姹
##姻
##姿
##威
##娃
##娄
##娅
##娆
##娇
##娉
##娑
##娓
##娘
##娛
##娜
##娟
##娠
##娣
##娥
##娩
##娱
##娲
##娴
##娶
##娼
##婀
##婁
##婆
##婉
##婊
##婕
##婚
##婢
##婦
##婧
##婪
##婭
##婴
##婵
##婶
##婷
##婺
##婿
##媒
##媚
##媛
##媞
##媧
##媲
##媳
##媽
##媾
##嫁
##嫂
##嫉
##嫌
##嫑
##嫔
##嫖
##嫘
##嫚
##嫡
##嫣
##嫦
##嫩
##嫲
##嫵
##嫻
##嬅
##嬉
##嬌
##嬗
##嬛
##嬢
##嬤
##嬪
##嬰
##嬴
##嬷
##嬸
##嬿
##孀
##孃
##子
##孑
##孔
##孕
##孖
##字
##存
##孙
##孚
##孛
##孜
##孝
##孟
##孢
##季
##孤
##学
##孩
##孪
##孫
##孬
##孰
##孱
##孳
##孵
##學
##孺
##孽
##孿
##宁
##它
##宅
##宇
##守
##安
##宋
##完
##宏
##宓
##宕
##宗
##官
##宙
##定
##宛
##宜
##宝
##实
##実
##宠
##审
##客
##宣
##室
##宥
##宦
##宪
##宫
##宮
##宰
##害
##宴
##宵
##家
##宸
##容
##宽
##宾
##宿
##寂
##寄
##寅
##密
##寇
##富
##寐
##寒
##寓
##寛
##寝
##寞
##察
##寡
##寢
##寥
##實
##寧
##寨
##審
##寫
##寬
##寮
##寰
##寵
##寶
##寸
##对
##寺
##寻
##导
##対
##寿
##封
##専
##射
##将
##將
##專
##尉
##尊
##尋
##對
##導
##小
##少
##尔
##尕
##尖
##尘
##尚
##尝
##尤
##尧
##尬
##就
##尴
##尷
##尸
##尹
##尺
##尻
##尼
##尽
##尾
##尿
##局
##屁
##层
##屄
##居
##屆
##屈
##屉
##届
##屋
##屌
##屍
##屎
##屏
##屐
##屑
##展
##屜
##属
##屠
##屡
##屢
##層
##履
##屬
##屯
##山
##屹
##屿
##岀
##岁
##岂
##岌
##岐
##岑
##岔
##岖
##岗
##岘
##岙
##岚
##岛
##岡
##岩
##岫
##岬
##岭
##岱
##岳
##岷
##岸
##峇
##峋
##峒
##峙
##峡
##峤
##峥
##峦
##峨
##峪
##峭
##峯
##峰
##峴
##島
##峻
##峽
##崁
##崂
##崆
##崇
##崎
##崑
##崔
##崖
##崗
##崙
##崛
##崧
##崩
##崭
##崴
##崽
##嵇
##嵊
##嵋
##嵌
##嵐
##嵘
##嵩
##嵬
##嵯
##嶂
##嶄
##嶇
##嶋
##嶙
##嶺
##嶼
##嶽
##巅
##巍
##巒
##巔
##巖
##川
##州
##巡
##巢
##工
##左
##巧
##巨
##巩
##巫
##差
##己
##已
##巳
##巴
##巷
##巻
##巽
##巾
##巿
##币
##市
##布
##帅
##帆
##师
##希
##帐
##帑
##帕
##帖
##帘
##帚
##帛
##帜
##帝
##帥
##带
##帧
##師
##席
##帮
##帯
##帰
##帳
##帶
##帷
##常
##帼
##帽
##幀
##幂
##幄
##幅
##幌
##幔
##幕
##幟
##幡
##幢
##幣
##幫
##干
##平
##年
##并
##幸
##幹
##幺
##幻
##幼
##幽
##幾
##广
##庁
##広
##庄
##庆
##庇
##床
##序
##庐
##库
##应
##底
##庖
##店
##庙
##庚
##府
##庞
##废
##庠
##度
##座
##庫
##庭
##庵
##庶
##康
##庸
##庹
##庾
##廁
##廂
##廃
##廈
##廉
##廊
##廓
##廖
##廚
##廝
##廟
##廠
##廢
##廣
##廬
##廳
##延
##廷
##建
##廿
##开
##弁
##异
##弃
##弄
##弈
##弊
##弋
##式
##弑
##弒
##弓
##弔
##引
##弗
##弘
##弛
##弟
##张
##弥
##弦
##弧
##弩
##弭
##弯
##弱
##張
##強
##弹
##强
##弼
##弾
##彅
##彆
##彈
##彌
##彎
##归
##当
##录
##彗
##彙
##彝
##形
##彤
##彥
##彦
##彧
##彩
##彪
##彫
##彬
##彭
##彰
##影
##彷
##役
##彻
##彼
##彿
##往
##征
##径
##待
##徇
##很
##徉
##徊
##律
##後
##徐
##徑
##徒
##従
##徕
##得
##徘
##徙
##徜
##從
##徠
##御
##徨
##復
##循
##徬
##微
##徳
##徴
##徵
##德
##徹
##徼
##徽
##心
##必
##忆
##忌
##忍
##忏
##忐
##忑
##忒
##忖
##志
##忘
##忙
##応
##忠
##忡
##忤
##忧
##忪
##快
##忱
##念
##忻
##忽
##忿
##怀
##态
##怂
##怅
##怆
##怎
##怏
##怒
##怔
##怕
##怖
##怙
##怜
##思
##怠
##怡
##急
##怦
##性
##怨
##怪
##怯
##怵
##总
##怼
##恁
##恃
##恆
##恋
##恍
##恐
##恒
##恕
##恙
##恚
##恢
##恣
##恤
##恥
##恨
##恩
##恪
##恫
##恬
##恭
##息
##恰
##恳
##恵
##恶
##恸
##恺
##恻
##恼
##恿
##悄
##悅
##悉
##悌
##悍
##悔
##悖
##悚
##悟
##悠
##患
##悦
##您
##悩
##悪
##悬
##悯
##悱
##悲
##悴
##悵
##悶
##悸
##悻
##悼
##悽
##情
##惆
##惇
##惊
##惋
##惑
##惕
##惘
##惚
##惜
##惟
##惠
##惡
##惦
##惧
##惨
##惩
##惫
##惬
##惭
##惮
##惯
##惰
##惱
##想
##惴
##惶
##惹
##惺
##愁
##愆
##愈
##愉
##愍
##意
##愕
##愚
##愛
##愜
##感
##愣
##愤
##愧
##愫
##愷
##愿
##慄
##慈
##態
##慌
##慎
##慑
##慕
##慘
##慚
##慟
##慢
##慣
##慧
##慨
##慫
##慮
##慰
##慳
##慵
##慶
##慷
##慾
##憂
##憊
##憋
##憎
##憐
##憑
##憔
##憚
##憤
##憧
##憨
##憩
##憫
##憬
##憲
##憶
##憾
##懂
##懇
##懈
##應
##懊
##懋
##懑
##懒
##懦
##懲
##懵
##懶
##懷
##懸
##懺
##懼
##懾
##懿
##戀
##戈
##戊
##戌
##戍
##戎
##戏
##成
##我
##戒
##戕
##或
##战
##戚
##戛
##戟
##戡
##戦
##截
##戬
##戮
##戰
##戲
##戳
##戴
##戶
##户
##戸
##戻
##戾
##房
##所
##扁
##扇
##扈
##扉
##手
##才
##扎
##扑
##扒
##打
##扔
##払
##托
##扛
##扣
##扦
##执
##扩
##扪
##扫
##扬
##扭
##扮
##扯
##扰
##扱
##扳
##扶
##批
##扼
##找
##承
##技
##抄
##抉
##把
##抑
##抒
##抓
##投
##抖
##抗
##折
##抚
##抛
##抜
##択
##抟
##抠
##抡
##抢
##护
##报
##抨
##披
##抬
##抱
##抵
##抹
##押
##抽
##抿
##拂
##拄
##担
##拆
##拇
##拈
##拉
##拋
##拌
##拍
##拎
##拐
##拒
##拓
##拔
##拖
##拗
##拘
##拙
##拚
##招
##拜
##拟
##拡
##拢
##拣
##拥
##拦
##拧
##拨
##择
##括
##拭
##拮
##拯
##拱
##拳
##拴
##拷
##拼
##拽
##拾
##拿
##持
##挂
##指
##挈
##按
##挎
##挑
##挖
##挙
##挚
##挛
##挝
##挞
##挟
##挠
##挡
##挣
##挤
##挥
##挨
##挪
##挫
##振
##挲
##挹
##挺
##挽
##挾
##捂
##捅
##捆
##捉
##捋
##捌
##捍
##捎
##捏
##捐
##捕
##捞
##损
##捡
##换
##捣
##捧
##捨
##捩
##据
##捱
##捲
##捶
##捷
##捺
##捻
##掀
##掂
##掃
##掇
##授
##掉
##掌
##掏
##掐
##排
##掖
##掘
##掙
##掛
##掠
##採
##探
##掣
##接
##控
##推
##掩
##措
##掬
##掰
##掲
##掳
##掴
##掷
##掸
##掺
##揀
##揃
##揄
##揆
##揉
##揍
##描
##提
##插
##揖
##揚
##換
##握
##揣
##揩
##揪
##揭
##揮
##援
##揶
##揸
##揹
##揽
##搀
##搁
##搂
##搅
##損
##搏
##搐
##搓
##搔
##搖
##搗
##搜
##搞
##搡
##搪
##搬
##搭
##搵
##搶
##携
##搽
##摀
##摁
##摄
##摆
##摇
##摈
##摊
##摒
##摔
##摘
##摞
##摟
##摧
##摩
##摯
##摳
##摸
##摹
##摺
##摻
##撂
##撃
##撅
##撇
##撈
##撐
##撑
##撒
##撓
##撕
##撚
##撞
##撤
##撥
##撩
##撫
##撬
##播
##撮
##撰
##撲
##撵
##撷
##撸
##撻
##撼
##撿
##擀
##擁
##擂
##擄
##擅
##擇
##擊
##擋
##操
##擎
##擒
##擔
##擘
##據
##擞
##擠
##擡
##擢
##擦
##擬
##擰
##擱
##擲
##擴
##擷
##擺
##擼
##擾
##攀
##攏
##攒
##攔
##攘
##攙
##攜
##攝
##攞
##攢
##攣
##攤
##攥
##攪
##攫
##攬
##支
##收
##攸
##改
##攻
##放
##政
##故
##效
##敌
##敍
##敎
##敏
##救
##敕
##敖
##敗
##敘
##教
##敛
##敝
##敞
##敢
##散
##敦
##敬
##数
##敲
##整
##敵
##敷
##數
##斂
##斃
##文
##斋
##斌
##斎
##斐
##斑
##斓
##斗
##料
##斛
##斜
##斟
##斡
##斤
##斥
##斧
##斩
##斫
##斬
##断
##斯
##新
##斷
##方
##於
##施
##旁
##旃
##旅
##旋
##旌
##旎
##族
##旖
##旗
##无
##既
##日
##旦
##旧
##旨
##早
##旬
##旭
##旮
##旱
##时
##旷
##旺
##旻
##昀
##昂
##昆
##昇
##昉
##昊
##昌
##明
##昏
##易
##昔
##昕
##昙
##星
##映
##春
##昧
##昨
##昭
##是
##昱
##昴
##昵
##昶
##昼
##显
##晁
##時
##晃
##晉
##晋
##晌
##晏
##晒
##晓
##晔
##晕
##晖
##晗
##晚
##晝
##晞
##晟
##晤
##晦
##晨
##晩
##普
##景
##晰
##晴
##晶
##晷
##智
##晾
##暂
##暄
##暇
##暈
##暉
##暌
##暐
##暑
##暖
##暗
##暝
##暢
##暧
##暨
##暫
##暮
##暱
##暴
##暸
##暹
##曄
##曆
##曇
##曉
##曖
##曙
##曜
##曝
##曠
##曦
##曬
##曰
##曲
##曳
##更
##書
##曹
##曼
##曾
##替
##最
##會
##月
##有
##朋
##服
##朐
##朔
##朕
##朗
##望
##朝
##期
##朦
##朧
##木
##未
##末
##本
##札
##朮
##术
##朱
##朴
##朵
##机
##朽
##杀
##杂
##权
##杆
##杈
##杉
##李
##杏
##材
##村
##杓
##杖
##杜
##杞
##束
##杠
##条
##来
##杨
##杭
##杯
##杰
##東
##杳
##杵
##杷
##杼
##松
##板
##极
##构
##枇
##枉
##枋
##析
##枕
##林
##枚
##果
##枝
##枢
##枣
##枪
##枫
##枭
##枯
##枰
##枱
##枳
##架
##枷
##枸
##柄
##柏
##某
##柑
##柒
##染
##柔
##柘
##柚
##柜
##柞
##柠
##柢
##查
##柩
##柬
##柯
##柱
##柳
##柴
##柵
##査
##柿
##栀
##栃
##栄
##栅
##标
##栈
##栉
##栋
##栎
##栏
##树
##栓
##栖
##栗
##校
##栩
##株
##样
##核
##根
##格
##栽
##栾
##桀
##桁
##桂
##桃
##桅
##框
##案
##桉
##桌
##桎
##桐
##桑
##桓
##桔
##桜
##桠
##桡
##桢
##档
##桥
##桦
##桧
##桨
##桩
##桶
##桿
##梁
##梅
##梆
##梏
##梓
##梗
##條
##梟
##梢
##梦
##梧
##梨
##梭
##梯
##械
##梳
##梵
##梶
##检
##棂
##棄
##棉
##棋
##棍
##棒
##棕
##棗
##棘
##棚
##棟
##棠
##棣
##棧
##森
##棱
##棲
##棵
##棹
##棺
##椁
##椅
##椋
##植
##椎
##椒
##検
##椪
##椭
##椰
##椹
##椽
##椿
##楂
##楊
##楓
##楔
##楚
##楝
##楞
##楠
##楣
##楨
##楫
##業
##楮
##極
##楷
##楸
##楹
##楼
##楽
##概
##榄
##榆
##榈
##榉
##榔
##榕
##榖
##榛
##榜
##榨
##榫
##榭
##榮
##榱
##榴
##榷
##榻
##槁
##槃
##構
##槌
##槍
##槎
##槐
##槓
##様
##槛
##槟
##槤
##槭
##槲
##槳
##槻
##槽
##槿
##樁
##樂
##樊
##樑
##樓
##標
##樞
##樟
##模
##樣
##権
##横
##樫
##樯
##樱
##樵
##樸
##樹
##樺
##樽
##樾
##橄
##橇
##橋
##橐
##橘
##橙
##機
##橡
##橢
##橫
##橱
##橹
##橼
##檀
##檄
##檎
##檐
##檔
##檗
##檜
##檢
##檬
##檯
##檳
##檸
##檻
##櫃
##櫚
##櫛
##櫥
##櫸
##櫻
##欄
##權
##欒
##欖
##欠
##次
##欢
##欣
##欧
##欲
##欸
##欺
##欽
##款
##歆
##歇
##歉
##歌
##歎
##歐
##歓
##歙
##歛
##歡
##止
##正
##此
##步
##武
##歧
##歩
##歪
##歯
##歲
##歳
##歴
##歷
##歸
##歹
##死
##歼
##殁
##殃
##殆
##殇
##殉
##殊
##残
##殒
##殓
##殖
##殘
##殞
##殡
##殤
##殭
##殯
##殲
##殴
##段
##殷
##殺
##殼
##殿
##毀
##毁
##毂
##毅
##毆
##毋
##母
##毎
##每
##毒
##毓
##比
##毕
##毗
##毘
##毙
##毛
##毡
##毫
##毯
##毽
##氈
##氏
##氐
##民
##氓
##气
##氖
##気
##氙
##氛
##氟
##氡
##氢
##氣
##氤
##氦
##氧
##氨
##氪
##氫
##氮
##氯
##氰
##氲
##水
##氷
##永
##氹
##氾
##汀
##汁
##求
##汆
##汇
##汉
##汎
##汐
##汕
##汗
##汙
##汛
##汝
##汞
##江
##池
##污
##汤
##汨
##汩
##汪
##汰
##汲
##汴
##汶
##汹
##決
##汽
##汾
##沁
##沂
##沃
##沅
##沈
##沉
##沌
##沏
##沐
##沒
##沓
##沖
##沙
##沛
##沟
##没
##沢
##沣
##沥
##沦
##沧
##沪
##沫
##沭
##沮
##沱
##河
##沸
##油
##治
##沼
##沽
##沾
##沿
##況
##泄
##泉
##泊
##泌
##泓
##法
##泗
##泛
##泞
##泠
##泡
##波
##泣
##泥
##注
##泪
##泫
##泮
##泯
##泰
##泱
##泳
##泵
##泷
##泸
##泻
##泼
##泽
##泾
##洁
##洄
##洋
##洒
##洗
##洙
##洛
##洞
##津
##洩
##洪
##洮
##洱
##洲
##洵
##洶
##洸
##洹
##活
##洼
##洽
##派
##流
##浃
##浄
##浅
##浆
##浇
##浊
##测
##济
##浏
##浑
##浒
##浓
##浔
##浙
##浚
##浜
##浣
##浦
##浩
##浪
##浬
##浮
##浯
##浴
##海
##浸
##涂
##涅
##涇
##消
##涉
##涌
##涎
##涓
##涔
##涕
##涙
##涛
##涝
##涞
##涟
##涠
##涡
##涣
##涤
##润
##涧
##涨
##涩
##涪
##涮
##涯
##液
##涵
##涸
##涼
##涿
##淀
##淄
##淅
##淆
##淇
##淋
##淌
##淑
##淒
##淖
##淘
##淙
##淚
##淞
##淡
##淤
##淦
##淨
##淩
##淪
##淫
##淬
##淮
##深
##淳
##淵
##混
##淹
##淺
##添
##淼
##清
##済
##渉
##渊
##渋
##渍
##渎
##渐
##渔
##渗
##渙
##渚
##減
##渝
##渠
##渡
##渣
##渤
##渥
##渦
##温
##測
##渭
##港
##渲
##渴
##游
##渺
##渾
##湃
##湄
##湊
##湍
##湖
##湘
##湛
##湟
##湧
##湫
##湮
##湯
##湳
##湾
##湿
##満
##溃
##溅
##溉
##溏
##源
##準
##溜
##溝
##溟
##溢
##溥
##溧
##溪
##溫
##溯
##溱
##溴
##溶
##溺
##溼
##滁
##滂
##滄
##滅
##滇
##滋
##滌
##滑
##滓
##滔
##滕
##滙
##滚
##滝
##滞
##滟
##满
##滢
##滤
##滥
##滦
##滨
##滩
##滬
##滯
##滲
##滴
##滷
##滸
##滾
##滿
##漁
##漂
##漆
##漉
##漏
##漓
##演
##漕
##漠
##漢
##漣
##漩
##漪
##漫
##漬
##漯
##漱
##漲
##漳
##漸
##漾
##漿
##潆
##潇
##潋
##潍
##潑
##潔
##潘
##潛
##潜
##潞
##潟
##潢
##潤
##潦
##潧
##潭
##潮
##潰
##潴
##潸
##潺
##潼
##澀
##澄
##澆
##澈
##澍
##澎
##澗
##澜
##澡
##澤
##澧
##澱
##澳
##澹
##激
##濁
##濂
##濃
##濑
##濒
##濕
##濘
##濛
##濟
##濠
##濡
##濤
##濫
##濬
##濮
##濯
##濱
##濺
##濾
##瀅
##瀆
##瀉
##瀋
##瀏
##瀑
##瀕
##瀘
##瀚
##瀛
##瀝
##瀞
##瀟
##瀧
##瀨
##瀬
##瀰
##瀾
##灌
##灏
##灑
##灘
##灝
##灞
##灣
##火
##灬
##灭
##灯
##灰
##灵
##灶
##灸
##灼
##災
##灾
##灿
##炀
##炁
##炅
##炉
##炊
##炎
##炒
##炔
##炕
##炖
##炙
##炜
##炫
##炬
##炭
##炮
##炯
##炳
##炷
##炸
##点
##為
##炼
##炽
##烁
##烂
##烃
##烈
##烊
##烏
##烘
##烙
##烛
##烟
##烤
##烦
##烧
##烨
##烩
##烫
##烬
##热
##烯
##烷
##烹
##烽
##焉
##焊
##焕
##焖
##焗
##焘
##焙
##焚
##焜
##無
##焦
##焯
##焰
##焱
##然
##焼
##煅
##煉
##煊
##煌
##煎
##煒
##煖
##煙
##煜
##煞
##煤
##煥
##煦
##照
##煨
##煩
##煮
##煲
##煸
##煽
##熄
##熊
##熏
##熒
##熔
##熙
##熟
##熠
##熨
##熬
##熱
##熵
##熹
##熾
##燁
##燃
##燄
##燈
##燉
##燊
##燎
##燒
##燔
##燕
##燙
##燜
##營
##燥
##燦
##燧
##燭
##燮
##燴
##燻
##燼
##燿
##爆
##爍
##爐
##爛
##爪
##爬
##爭
##爰
##爱
##爲
##爵
##父
##爷
##爸
##爹
##爺
##爻
##爽
##爾
##牆
##片
##版
##牌
##牍
##牒
##牙
##牛
##牝
##牟
##牠
##牡
##牢
##牦
##牧
##物
##牯
##牲
##牴
##牵
##特
##牺
##牽
##犀
##犁
##犄
##犊
##犍
##犒
##犢
##犧
##犬
##犯
##状
##犷
##犸
##犹
##狀
##狂
##狄
##狈
##狎
##狐
##狒
##狗
##狙
##狞
##狠
##狡
##狩
##独
##狭
##狮
##狰
##狱
##狸
##狹
##狼
##狽
##猎
##猕
##猖
##猗
##猙
##猛
##猜
##猝
##猥
##猩
##猪
##猫
##猬
##献
##猴
##猶
##猷
##猾
##猿
##獄
##獅
##獎
##獐
##獒
##獗
##獠
##獣
##獨
##獭
##獰
##獲
##獵
##獷
##獸
##獺
##獻
##獼
##獾
##玄
##率
##玉
##王
##玑
##玖
##玛
##玟
##玠
##玥
##玩
##玫
##玮
##环
##现
##玲
##玳
##玷
##玺
##玻
##珀
##珂
##珅
##珈
##珉
##珊
##珍
##珏
##珐
##珑
##珙
##珞
##珠
##珣
##珥
##珩
##珪
##班
##珮
##珲
##珺
##現
##球
##琅
##理
##琇
##琉
##琊
##琍
##琏
##琐
##琛
##琢
##琥
##琦
##琨
##琪
##琬
##琮
##琰
##琲
##琳
##琴
##琵
##琶
##琺
##琼
##瑀
##瑁
##瑄
##瑋
##瑕
##瑗
##瑙
##瑚
##瑛
##瑜
##瑞
##瑟
##瑠
##瑣
##瑤
##瑩
##瑪
##瑯
##瑰
##瑶
##瑾
##璀
##璁
##璃
##璇
##璉
##璋
##璎
##璐
##璜
##璞
##璟
##璧
##璨
##環
##璽
##璿
##瓊
##瓏
##瓒
##瓜
##瓢
##瓣
##瓤
##瓦
##瓮
##瓯
##瓴
##瓶
##瓷
##甄
##甌
##甕
##甘
##甙
##甚
##甜
##生
##產
##産
##甥
##甦
##用
##甩
##甫
##甬
##甭
##甯
##田
##由
##甲
##申
##电
##男
##甸
##町
##画
##甾
##畀
##畅
##界
##畏
##畑
##畔
##留
##畜
##畝
##畢
##略
##畦
##番
##畫
##異
##畲
##畳
##畴
##當
##畸
##畹
##畿
##疆
##疇
##疊
##疏
##疑
##疔
##疖
##疗
##疙
##疚
##疝
##疟
##疡
##疣
##疤
##疥
##疫
##疮
##疯
##疱
##疲
##疳
##疵
##疸
##疹
##疼
##疽
##疾
##痂
##病
##症
##痈
##痉
##痊
##痍
##痒
##痔
##痕
##痘
##痙
##痛
##痞
##痠
##痢
##痣
##痤
##痧
##痨
##痪
##痫
##痰
##痱
##痴
##痹
##痺
##痼
##痿
##瘀
##瘁
##瘋
##瘍
##瘓
##瘘
##瘙
##瘟
##瘠
##瘡
##瘢
##瘤
##瘦
##瘧
##瘩
##瘪
##瘫
##瘴
##瘸
##瘾
##療
##癇
##癌
##癒
##癖
##癜
##癞
##癡
##癢
##癣
##癥
##癫
##癬
##癮
##癱
##癲
##癸
##発
##登
##發
##白
##百
##皂
##的
##皆
##皇
##皈
##皋
##皎
##皑
##皓
##皖
##皙
##皚
##皮
##皰
##皱
##皴
##皺
##皿
##盂
##盃
##盅
##盆
##盈
##益
##盎
##盏
##盐
##监
##盒
##盔
##盖
##盗
##盘
##盛
##盜
##盞
##盟
##盡
##監
##盤
##盥
##盧
##盪
##目
##盯
##盱
##盲
##直
##相
##盹
##盼
##盾
##省
##眈
##眉
##看
##県
##眙
##眞
##真
##眠
##眦
##眨
##眩
##眯
##眶
##眷
##眸
##眺
##眼
##眾
##着
##睁
##睇
##睏
##睐
##睑
##睛
##睜
##睞
##睡
##睢
##督
##睥
##睦
##睨
##睪
##睫
##睬
##睹
##睽
##睾
##睿
##瞄
##瞅
##瞇
##瞋
##瞌
##瞎
##瞑
##瞒
##瞓
##瞞
##瞟
##瞠
##瞥
##瞧
##瞩
##瞪
##瞬
##瞭
##瞰
##瞳
##瞻
##瞼
##瞿
##矇
##矍
##矗
##矚
##矛
##矜
##矢
##矣
##知
##矩
##矫
##短
##矮
##矯
##石
##矶
##矽
##矾
##矿
##码
##砂
##砌
##砍
##砒
##研
##砖
##砗
##砚
##砝
##砣
##砥
##砧
##砭
##砰
##砲
##破
##砷
##砸
##砺
##砼
##砾
##础
##硅
##硐
##硒
##硕
##硝
##硫
##硬
##确
##硯
##硼
##碁
##碇
##碉
##碌
##碍
##碎
##碑
##碓
##碗
##碘
##碚
##碛
##碟
##碣
##碧
##碩
##碰
##碱
##碳
##碴
##確
##碼
##碾
##磁
##磅
##磊
##磋
##磐
##磕
##磚
##磡
##磨
##磬
##磯
##磲
##磷
##磺
##礁
##礎
##礙
##礡
##礦
##礪
##礫
##礴
##示
##礼
##社
##祀
##祁
##祂
##祇
##祈
##祉
##祎
##祐
##祕
##祖
##祗
##祚
##祛
##祜
##祝
##神
##祟
##祠
##祢
##祥
##票
##祭
##祯
##祷
##祸
##祺
##祿
##禀
##禁
##禄
##禅
##禍
##禎
##福
##禛
##禦
##禧
##禪
##禮
##禱
##禹
##禺
##离
##禽
##禾
##禿
##秀
##私
##秃
##秆
##秉
##秋
##种
##科
##秒
##秘
##租
##秣
##秤
##秦
##秧
##秩
##秭
##积
##称
##秸
##移
##秽
##稀
##稅
##程
##稍
##税
##稔
##稗
##稚
##稜
##稞
##稟
##稠
##稣
##種
##稱
##稲
##稳
##稷
##稹
##稻
##稼
##稽
##稿
##穀
##穂
##穆
##穌
##積
##穎
##穗
##穢
##穩
##穫
##穴
##究
##穷
##穹
##空
##穿
##突
##窃
##窄
##窈
##窍
##窑
##窒
##窓
##窕
##窖
##窗
##窘
##窜
##窝
##窟
##窠
##窥
##窦
##窨
##窩
##窪
##窮
##窯
##窺
##窿
##竄
##竅
##竇
##竊
##立
##竖
##站
##竜
##竞
##竟
##章
##竣
##童
##竭
##端
##競
##竹
##竺
##竽
##竿
##笃
##笆
##笈
##笋
##笏
##笑
##笔
##笙
##笛
##笞
##笠
##符
##笨
##第
##笹
##笺
##笼
##筆
##等
##筊
##筋
##筍
##筏
##筐
##筑
##筒
##答
##策
##筛
##筝
##筠
##筱
##筲
##筵
##筷
##筹
##签
##简
##箇
##箋
##箍
##箏
##箐
##箔
##箕
##算
##箝
##管
##箩
##箫
##箭
##箱
##箴
##箸
##節
##篁
##範
##篆
##篇
##築
##篑
##篓
##篙
##篝
##篠
##篡
##篤
##篩
##篪
##篮
##篱
##篷
##簇
##簌
##簍
##簡
##簦
##簧
##簪
##簫
##簷
##簸
##簽
##簾
##簿
##籁
##籃
##籌
##籍
##籐
##籟
##籠
##籤
##籬
##籮
##籲
##米
##类
##籼
##籽
##粄
##粉
##粑
##粒
##粕
##粗
##粘
##粟
##粤
##粥
##粧
##粪
##粮
##粱
##粲
##粳
##粵
##粹
##粼
##粽
##精
##粿
##糅
##糊
##糍
##糕
##糖
##糗
##糙
##糜
##糞
##糟
##糠
##糧
##糬
##糯
##糰
##糸
##系
##糾
##紀
##紂
##約
##紅
##紉
##紊
##紋
##納
##紐
##紓
##純
##紗
##紘
##紙
##級
##紛
##紜
##素
##紡
##索
##紧
##紫
##紮
##累
##細
##紳
##紹
##紺
##終
##絃
##組
##絆
##経
##結
##絕
##絞
##絡
##絢
##給
##絨
##絮
##統
##絲
##絳
##絵
##絶
##絹
##綁
##綏
##綑
##經
##継
##続
##綜
##綠
##綢
##綦
##綫
##綬
##維
##綱
##網
##綴
##綵
##綸
##綺
##綻
##綽
##綾
##綿
##緊
##緋
##総
##緑
##緒
##緘
##線
##緝
##緞
##締
##緣
##編
##緩
##緬
##緯
##練
##緹
##緻
##縁
##縄
##縈
##縛
##縝
##縣
##縫
##縮
##縱
##縴
##縷
##總
##績
##繁
##繃
##繆
##繇
##繋
##織
##繕
##繚
##繞
##繡
##繩
##繪
##繫
##繭
##繳
##繹
##繼
##繽
##纂
##續
##纍
##纏
##纓
##纔
##纖
##纜
##纠
##红
##纣
##纤
##约
##级
##纨
##纪
##纫
##纬
##纭
##纯
##纰
##纱
##纲
##纳
##纵
##纶
##纷
##纸
##纹
##纺
##纽
##纾
##线
##绀
##练
##组
##绅
##细
##织
##终
##绊
##绍
##绎
##经
##绑
##绒
##结
##绔
##绕
##绘
##给
##绚
##绛
##络
##绝
##绞
##统
##绡
##绢
##绣
##绥
##绦
##继
##绩
##绪
##绫
##续
##绮
##绯
##绰
##绳
##维
##绵
##绶
##绷
##绸
##绻
##综
##绽
##绾
##绿
##缀
##缄
##缅
##缆
##缇
##缈
##缉
##缎
##缓
##缔
##缕
##编
##缘
##缙
##缚
##缜
##缝
##缠
##缢
##缤
##缥
##缨
##缩
##缪
##缭
##缮
##缰
##缱
##缴
##缸
##缺
##缽
##罂
##罄
##罌
##罐
##网
##罔
##罕
##罗
##罚
##罡
##罢
##罩
##罪
##置
##罰
##署
##罵
##罷
##罹
##羁
##羅
##羈
##羊
##羌
##美
##羔
##羚
##羞
##羟
##羡
##羣
##群
##羥
##羧
##羨
##義
##羯
##羲
##羸
##羹
##羽
##羿
##翁
##翅
##翊
##翌
##翎
##習
##翔
##翘
##翟
##翠
##翡
##翦
##翩
##翰
##翱
##翳
##翹
##翻
##翼
##耀
##老
##考
##耄
##者
##耆
##耋
##而
##耍
##耐
##耒
##耕
##耗
##耘
##耙
##耦
##耨
##耳
##耶
##耷
##耸
##耻
##耽
##耿
##聂
##聆
##聊
##聋
##职
##聒
##联
##聖
##聘
##聚
##聞
##聪
##聯
##聰
##聲
##聳
##聴
##聶
##職
##聽
##聾
##聿
##肃
##肄
##肅
##肆
##肇
##肉
##肋
##肌
##肏
##肓
##肖
##肘
##肚
##肛
##肝
##肠
##股
##肢
##肤
##肥
##肩
##肪
##肮
##肯
##肱
##育
##肴
##肺
##肽
##肾
##肿
##胀
##胁
##胃
##胄
##胆
##背
##胍
##胎
##胖
##胚
##胛
##胜
##胝
##胞
##胡
##胤
##胥
##胧
##胫
##胭
##胯
##胰
##胱
##胳
##胴
##胶
##胸
##胺
##能
##脂
##脅
##脆
##脇
##脈
##脉
##脊
##脍
##脏
##脐
##脑
##脓
##脖
##脘
##脚
##脛
##脣
##脩
##脫
##脯
##脱
##脲
##脳
##脸
##脹
##脾
##腆
##腈
##腊
##腋
##腌
##腎
##腐
##腑
##腓
##腔
##腕
##腥
##腦
##腩
##腫
##腭
##腮
##腰
##腱
##腳
##腴
##腸
##腹
##腺
##腻
##腼
##腾
##腿
##膀
##膈
##膊
##膏
##膑
##膘
##膚
##膛
##膜
##膝
##膠
##膦
##膨
##膩
##膳
##膺
##膻
##膽
##膾
##膿
##臀
##臂
##臃
##臆
##臉
##臊
##臍
##臓
##臘
##臟
##臣
##臥
##臧
##臨
##自
##臬
##臭
##至
##致
##臺
##臻
##臼
##臾
##舀
##舂
##舅
##舆
##與
##興
##舉
##舊
##舌
##舍
##舎
##舐
##舒
##舔
##舖
##舗
##舛
##舜
##舞
##舟
##航
##舫
##般
##舰
##舱
##舵
##舶
##舷
##舸
##船
##舺
##舾
##艇
##艋
##艘
##艙
##艦
##艮
##良
##艰
##艱
##色
##艳
##艷
##艹
##艺
##艾
##节
##芃
##芈
##芊
##芋
##芍
##芎
##芒
##芙
##芜
##芝
##芡
##芥
##芦
##芩
##芪
##芫
##芬
##芭
##芮
##芯
##花
##芳
##芷
##芸
##芹
##芻
##芽
##芾
##苁
##苄
##苇
##苋
##苍
##苏
##苑
##苒
##苓
##苔
##苕
##苗
##苛
##苜
##苞
##苟
##苡
##苣
##若
##苦
##苫
##苯
##英
##苷
##苹
##苻
##茁
##茂
##范
##茄
##茅
##茉
##茎
##茏
##茗
##茜
##茧
##茨
##茫
##茬
##茭
##茯
##茱
##茲
##茴
##茵
##茶
##茸
##茹
##茼
##荀
##荃
##荆
##草
##荊
##荏
##荐
##荒
##荔
##荖
##荘
##荚
##荞
##荟
##荠
##荡
##荣
##荤
##荥
##荧
##荨
##荪
##荫
##药
##荳
##荷
##荸
##荻
##荼
##荽
##莅
##莆
##莉
##莊
##莎
##莒
##莓
##莖
##莘
##莞
##莠
##莢
##莧
##莪
##莫
##莱
##莲
##莴
##获
##莹
##莺
##莽
##莿
##菀
##菁
##菅
##菇
##菈
##菊
##菌
##菏
##菓
##菖
##菘
##菜
##菟
##菠
##菡
##菩
##華
##菱
##菲
##菸
##菽
##萁
##萃
##萄
##萊
##萋
##萌
##萍
##萎
##萘
##萝
##萤
##营
##萦
##萧
##萨
##萩
##萬
##萱
##萵
##萸
##萼
##落
##葆
##葉
##著
##葚
##葛
##葡
##董
##葦
##葩
##葫
##葬
##葭
##葯
##葱
##葳
##葵
##葷
##葺
##蒂
##蒋
##蒐
##蒔
##蒙
##蒜
##蒞
##蒟
##蒡
##蒨
##蒲
##蒸
##蒹
##蒻
##蒼
##蒿
##蓁
##蓄
##蓆
##蓉
##蓋
##蓑
##蓓
##蓖
##蓝
##蓟
##蓦
##蓬
##蓮
##蓼
##蓿
##蔑
##蔓
##蔔
##蔗
##蔘
##蔚
##蔡
##蔣
##蔥
##蔫
##蔬
##蔭
##蔵
##蔷
##蔺
##蔻
##蔼
##蔽
##蕁
##蕃
##蕈
##蕉
##蕊
##蕎
##蕙
##蕤
##蕨
##蕩
##蕪
##蕭
##蕲
##蕴
##蕻
##蕾
##薄
##薅
##薇
##薈
##薊
##薏
##薑
##薔
##薙
##薛
##薦
##薨
##薩
##薪
##薬
##薯
##薰
##薹
##藉
##藍
##藏
##藐
##藓
##藕
##藜
##藝
##藤
##藥
##藩
##藹
##藻
##藿
##蘆
##蘇
##蘊
##蘋
##蘑
##蘚
##蘭
##蘸
##蘼
##蘿
##虎
##虏
##虐
##虑
##虔
##處
##虚
##虛
##虜
##虞
##號
##虢
##虧
##虫
##虬
##虱
##虹
##虻
##虽
##虾
##蚀
##蚁
##蚂
##蚊
##蚌
##蚓
##蚕
##蚜
##蚝
##蚣
##蚤
##蚩
##蚪
##蚯
##蚱
##蚵
##蛀
##蛆
##蛇
##蛊
##蛋
##蛎
##蛐
##蛔
##蛙
##蛛
##蛟
##蛤
##蛭
##蛮
##蛰
##蛳
##蛹
##蛻
##蛾
##蜀
##蜂
##蜃
##蜆
##蜇
##蜈
##蜊
##蜍
##蜒
##蜓
##蜕
##蜗
##蜘
##蜚
##蜜
##蜡
##蜢
##蜥
##蜱
##蜴
##蜷
##蜻
##蜿
##蝇
##蝈
##蝉
##蝌
##蝎
##蝕
##蝗
##蝙
##蝟
##蝠
##蝦
##蝨
##蝴
##蝶
##蝸
##蝼
##螂
##螃
##融
##螞
##螢
##螨
##螯
##螳
##螺
##蟀
##蟄
##蟆
##蟋
##蟎
##蟑
##蟒
##蟠
##蟬
##蟲
##蟹
##蟻
##蟾
##蠅
##蠍
##蠔
##蠕
##蠛
##蠟
##蠡
##蠢
##蠣
##蠱
##蠶
##蠹
##蠻
##血
##衄
##衅
##衆
##行
##衍
##術
##衔
##街
##衙
##衛
##衝
##衞
##衡
##衢
##衣
##补
##表
##衩
##衫
##衬
##衮
##衰
##衲
##衷
##衹
##衾
##衿
##袁
##袂
##袄
##袅
##袈
##袋
##袍
##袒
##袖
##袜
##袞
##袤
##袪
##被
##袭
##袱
##裁
##裂
##装
##裆
##裊
##裏
##裔
##裕
##裘
##裙
##補
##裝
##裟
##裡
##裤
##裨
##裱
##裳
##裴
##裸
##裹
##製
##裾
##褂
##複
##褐
##褒
##褓
##褔
##褚
##褥
##褪
##褫
##褲
##褶
##褻
##襁
##襄
##襟
##襠
##襪
##襬
##襯
##襲
##西
##要
##覃
##覆
##覇
##見
##規
##覓
##視
##覚
##覦
##覧
##親
##覬
##観
##覷
##覺
##覽
##觀
##见
##观
##规
##觅
##视
##览
##觉
##觊
##觎
##觐
##觑
##角
##觞
##解
##觥
##触
##觸
##言
##訂
##計
##訊
##討
##訓
##訕
##訖
##託
##記
##訛
##訝
##訟
##訣
##訥
##訪
##設
##許
##訳
##訴
##訶
##診
##註
##証
##詆
##詐
##詔
##評
##詛
##詞
##詠
##詡
##詢
##詣
##試
##詩
##詫
##詬
##詭
##詮
##詰
##話
##該
##詳
##詹
##詼
##誅
##誇
##誉
##誌
##認
##誓
##誕
##誘
##語
##誠
##誡
##誣
##誤
##誥
##誦
##誨
##說
##説
##読
##誰
##課
##誹
##誼
##調
##諄
##談
##請
##諏
##諒
##論
##諗
##諜
##諡
##諦
##諧
##諫
##諭
##諮
##諱
##諳
##諷
##諸
##諺
##諾
##謀
##謁
##謂
##謄
##謊
##謎
##謐
##謔
##謗
##謙
##講
##謝
##謠
##謨
##謬
##謹
##謾
##譁
##證
##譎
##譏
##識
##譙
##譚
##譜
##警
##譬
##譯
##議
##譲
##譴
##護
##譽
##讀
##變
##讓
##讚
##讞
##计
##订
##认
##讥
##讧
##讨
##让
##讪
##讫
##训
##议
##讯
##记
##讲
##讳
##讴
##讶
##讷
##许
##讹
##论
##讼
##讽
##设
##访
##诀
##证
##诃
##评
##诅
##识
##诈
##诉
##诊
##诋
##词
##诏
##译
##试
##诗
##诘
##诙
##诚
##诛
##话
##诞
##诟
##诠
##诡
##询
##诣
##诤
##该
##详
##诧
##诩
##诫
##诬
##语
##误
##诰
##诱
##诲
##说
##诵
##诶
##请
##诸
##诺
##读
##诽
##课
##诿
##谀
##谁
##调
##谄
##谅
##谆
##谈
##谊
##谋
##谌
##谍
##谎
##谏
##谐
##谑
##谒
##谓
##谔
##谕
##谗
##谘
##谙
##谚
##谛
##谜
##谟
##谢
##谣
##谤
##谥
##谦
##谧
##谨
##谩
##谪
##谬
##谭
##谯
##谱
##谲
##谴
##谶
##谷
##豁
##豆
##豇
##豈
##豉
##豊
##豌
##豎
##豐
##豔
##豚
##象
##豢
##豪
##豫
##豬
##豹
##豺
##貂
##貅
##貌
##貓
##貔
##貘
##貝
##貞
##負
##財
##貢
##貧
##貨
##販
##貪
##貫
##責
##貯
##貰
##貳
##貴
##貶
##買
##貸
##費
##貼
##貽
##貿
##賀
##賁
##賂
##賃
##賄
##資
##賈
##賊
##賑
##賓
##賜
##賞
##賠
##賡
##賢
##賣
##賤
##賦
##質
##賬
##賭
##賴
##賺
##購
##賽
##贅
##贈
##贊
##贍
##贏
##贓
##贖
##贛
##贝
##贞
##负
##贡
##财
##责
##贤
##败
##账
##货
##质
##贩
##贪
##贫
##贬
##购
##贮
##贯
##贰
##贱
##贲
##贴
##贵
##贷
##贸
##费
##贺
##贻
##贼
##贾
##贿
##赁
##赂
##赃
##资
##赅
##赈
##赊
##赋
##赌
##赎
##赏
##赐
##赓
##赔
##赖
##赘
##赚
##赛
##赝
##赞
##赠
##赡
##赢
##赣
##赤
##赦
##赧
##赫
##赭
##走
##赳
##赴
##赵
##赶
##起
##趁
##超
##越
##趋
##趕
##趙
##趟
##趣
##趨
##足
##趴
##趵
##趸
##趺
##趾
##跃
##跄
##跆
##跋
##跌
##跎
##跑
##跖
##跚
##跛
##距
##跟
##跡
##跤
##跨
##跩
##跪
##路
##跳
##践
##跷
##跹
##跺
##跻
##踉
##踊
##踌
##踏
##踐
##踝
##踞
##踟
##踢
##踩
##踪
##踮
##踱
##踴
##踵
##踹
##蹂
##蹄
##蹇
##蹈
##蹉
##蹊
##蹋
##蹑
##蹒
##蹙
##蹟
##蹣
##蹤
##蹦
##蹩
##蹬
##蹭
##蹲
##蹴
##蹶
##蹺
##蹼
##蹿
##躁
##躇
##躉
##躊
##躋
##躍
##躏
##躪
##身
##躬
##躯
##躲
##躺
##軀
##車
##軋
##軌
##軍
##軒
##軟
##転
##軸
##軼
##軽
##軾
##較
##載
##輒
##輓
##輔
##輕
##輛
##輝
##輟
##輩
##輪
##輯
##輸
##輻
##輾
##輿
##轄
##轅
##轆
##轉
##轍
##轎
##轟
##车
##轧
##轨
##轩
##转
##轭
##轮
##软
##轰
##轲
##轴
##轶
##轻
##轼
##载
##轿
##较
##辄
##辅
##辆
##辇
##辈
##辉
##辊
##辍
##辐
##辑
##输
##辕
##辖
##辗
##辘
##辙
##辛
##辜
##辞
##辟
##辣
##辦
##辨
##辩
##辫
##辭
##辮
##辯
##辰
##辱
##農
##边
##辺
##辻
##込
##辽
##达
##迁
##迂
##迄
##迅
##过
##迈
##迎
##运
##近
##返
##还
##这
##进
##远
##违
##连
##迟
##迢
##迤
##迥
##迦
##迩
##迪
##迫
##迭
##述
##迴
##迷
##迸
##迹
##迺
##追
##退
##送
##适
##逃
##逅
##逆
##选
##逊
##逍
##透
##逐
##递
##途
##逕
##逗
##這
##通
##逛
##逝
##逞
##速
##造
##逢
##連
##逮
##週
##進
##逵
##逶
##逸
##逻
##逼
##逾
##遁
##遂
##遅
##遇
##遊
##運
##遍
##過
##遏
##遐
##遑
##遒
##道
##達
##違
##遗
##遙
##遛
##遜
##遞
##遠
##遢
##遣
##遥
##遨
##適
##遭
##遮
##遲
##遴
##遵
##遶
##遷
##選
##遺
##遼
##遽
##避
##邀
##邁
##邂
##邃
##還
##邇
##邈
##邊
##邋
##邏
##邑
##邓
##邕
##邛
##邝
##邢
##那
##邦
##邨
##邪
##邬
##邮
##邯
##邰
##邱
##邳
##邵
##邸
##邹
##邺
##邻
##郁
##郅
##郊
##郎
##郑
##郜
##郝
##郡
##郢
##郤
##郦
##郧
##部
##郫
##郭
##郴
##郵
##郷
##郸
##都
##鄂
##鄉
##鄒
##鄔
##鄙
##鄞
##鄢
##鄧
##鄭
##鄰
##鄱
##鄲
##鄺
##酉
##酊
##酋
##酌
##配
##酐
##酒
##酗
##酚
##酝
##酢
##酣
##酥
##酩
##酪
##酬
##酮
##酯
##酰
##酱
##酵
##酶
##酷
##酸
##酿
##醃
##醇
##醉
##醋
##醍
##醐
##醒
##醚
##醛
##醜
##醞
##醣
##醪
##醫
##醬
##醮
##醯
##醴
##醺
##釀
##釁
##采
##釉
##释
##釋
##里
##重
##野
##量
##釐
##金
##釗
##釘
##釜
##針
##釣
##釦
##釧
##釵
##鈀
##鈉
##鈍
##鈎
##鈔
##鈕
##鈞
##鈣
##鈦
##鈪
##鈴
##鈺
##鈾
##鉀
##鉄
##鉅
##鉉
##鉑
##鉗
##鉚
##鉛
##鉤
##鉴
##鉻
##銀
##銃
##銅
##銑
##銓
##銖
##銘
##銜
##銬
##銭
##銮
##銳
##銷
##銹
##鋁
##鋅
##鋒
##鋤
##鋪
##鋰
##鋸
##鋼
##錄
##錐
##錘
##錚
##錠
##錢
##錦
##錨
##錫
##錮
##錯
##録
##錳
##錶
##鍊
##鍋
##鍍
##鍛
##鍥
##鍰
##鍵
##鍺
##鍾
##鎂
##鎊
##鎌
##鎏
##鎔
##鎖
##鎗
##鎚
##鎧
##鎬
##鎮
##鎳
##鏈
##鏖
##鏗
##鏘
##鏞
##鏟
##鏡
##鏢
##鏤
##鏽
##鐘
##鐮
##鐲
##鐳
##鐵
##鐸
##鐺
##鑄
##鑊
##鑑
##鑒
##鑣
##鑫
##鑰
##鑲
##鑼
##鑽
##鑾
##鑿
##针
##钉
##钊
##钎
##钏
##钒
##钓
##钗
##钙
##钛
##钜
##钝
##钞
##钟
##钠
##钡
##钢
##钣
##钤
##钥
##钦
##钧
##钨
##钩
##钮
##钯
##钰
##钱
##钳
##钴
##钵
##钺
##钻
##钼
##钾
##钿
##铀
##铁
##铂
##铃
##铄
##铅
##铆
##铉
##铎
##铐
##铛
##铜
##铝
##铠
##铡
##铢
##铣
##铤
##铨
##铩
##铬
##铭
##铮
##铰
##铲
##铵
##银
##铸
##铺
##链
##铿
##销
##锁
##锂
##锄
##锅
##锆
##锈
##锉
##锋
##锌
##锏
##锐
##锑
##错
##锚
##锟
##锡
##锢
##锣
##锤
##锥
##锦
##锭
##键
##锯
##锰
##锲
##锵
##锹
##锺
##锻
##镀
##镁
##镂
##镇
##镉
##镌
##镍
##镐
##镑
##镕
##镖
##镗
##镛
##镜
##镣
##镭
##镯
##镰
##镳
##镶
##長
##长
##門
##閃
##閉
##開
##閎
##閏
##閑
##閒
##間
##閔
##閘
##閡
##関
##閣
##閥
##閨
##閩
##閱
##閲
##閹
##閻
##閾
##闆
##闇
##闊
##闌
##闍
##闔
##闕
##闖
##闘
##關
##闡
##闢
##门
##闪
##闫
##闭
##问
##闯
##闰
##闲
##间
##闵
##闷
##闸
##闹
##闺
##闻
##闽
##闾
##阀
##阁
##阂
##阅
##阆
##阇
##阈
##阉
##阎
##阐
##阑
##阔
##阕
##阖
##阙
##阚
##阜
##队
##阡
##阪
##阮
##阱
##防
##阳
##阴
##阵
##阶
##阻
##阿
##陀
##陂
##附
##际
##陆
##陇
##陈
##陋
##陌
##降
##限
##陕
##陛
##陝
##陞
##陟
##陡
##院
##陣
##除
##陨
##险
##陪
##陰
##陲
##陳
##陵
##陶
##陷
##陸
##険
##陽
##隅
##隆
##隈
##隊
##隋
##隍
##階
##随
##隐
##隔
##隕
##隘
##隙
##際
##障
##隠
##隣
##隧
##隨
##險
##隱
##隴
##隶
##隸
##隻
##隼
##隽
##难
##雀
##雁
##雄
##雅
##集
##雇
##雉
##雋
##雌
##雍
##雎
##雏
##雑
##雒
##雕
##雖
##雙
##雛
##雜
##雞
##離
##難
##雨
##雪
##雯
##雰
##雲
##雳
##零
##雷
##雹
##電
##雾
##需
##霁
##霄
##霆
##震
##霈
##霉
##霊
##霍
##霎
##霏
##霑
##霓
##霖
##霜
##霞
##霧
##霭
##霰
##露
##霸
##霹
##霽
##霾
##靂
##靄
##靈
##青
##靓
##靖
##静
##靚
##靛
##靜
##非
##靠
##靡
##面
##靥
##靦
##革
##靳
##靴
##靶
##靼
##鞅
##鞋
##鞍
##鞏
##鞑
##鞘
##鞠
##鞣
##鞦
##鞭
##韆
##韋
##韌
##韓
##韜
##韦
##韧
##韩
##韬
##韭
##音
##韵
##韶
##韻
##響
##頁
##頂
##頃
##項
##順
##須
##頌
##預
##頑
##頒
##頓
##頗
##領
##頜
##頡
##頤
##頫
##頭
##頰
##頷
##頸
##頹
##頻
##頼
##顆
##題
##額
##顎
##顏
##顔
##願
##顛
##類
##顧
##顫
##顯
##顱
##顴
##页
##顶
##顷
##项
##顺
##须
##顼
##顽
##顾
##顿
##颁
##颂
##预
##颅
##领
##颇
##颈
##颉
##颊
##颌
##颍
##颐
##频
##颓
##颔
##颖
##颗
##题
##颚
##颛
##颜
##额
##颞
##颠
##颡
##颢
##颤
##颦
##颧
##風
##颯
##颱
##颳
##颶
##颼
##飄
##飆
##风
##飒
##飓
##飕
##飘
##飙
##飚
##飛
##飞
##食
##飢
##飨
##飩
##飪
##飯
##飲
##飼
##飽
##飾
##餃
##餅
##餉
##養
##餌
##餐
##餒
##餓
##餘
##餚
##餛
##餞
##餡
##館
##餮
##餵
##餾
##饅
##饈
##饋
##饌
##饍
##饑
##饒
##饕
##饗
##饞
##饥
##饨
##饪
##饬
##饭
##饮
##饯
##饰
##饱
##饲
##饴
##饵
##饶
##饷
##饺
##饼
##饽
##饿
##馀
##馁
##馄
##馅
##馆
##馈
##馋
##馍
##馏
##馒
##馔
##首
##馗
##香
##馥
##馨
##馬
##馭
##馮
##馳
##馴
##駁
##駄
##駅
##駆
##駐
##駒
##駕
##駛
##駝
##駭
##駱
##駿
##騁
##騎
##騏
##験
##騙
##騨
##騰
##騷
##驀
##驅
##驊
##驍
##驒
##驕
##驗
##驚
##驛
##驟
##驢
##驥
##马
##驭
##驮
##驯
##驰
##驱
##驳
##驴
##驶
##驷
##驸
##驹
##驻
##驼
##驾
##驿
##骁
##骂
##骄
##骅
##骆
##骇
##骈
##骊
##骋
##验
##骏
##骐
##骑
##骗
##骚
##骛
##骜
##骞
##骠
##骡
##骤
##骥
##骧
##骨
##骯
##骰
##骶
##骷
##骸
##骼
##髂
##髅
##髋
##髏
##髒
##髓
##體
##髖
##高
##髦
##髪
##髮
##髯
##髻
##鬃
##鬆
##鬍
##鬓
##鬚
##鬟
##鬢
##鬣
##鬥
##鬧
##鬱
##鬼
##魁
##魂
##魄
##魅
##魇
##魍
##魏
##魔
##魘
##魚
##魯
##魷
##鮑
##鮨
##鮪
##鮭
##鮮
##鯉
##鯊
##鯖
##鯛
##鯨
##鯰
##鯽
##鰍
##鰓
##鰭
##鰲
##鰻
##鰾
##鱈
##鱉
##鱔
##鱗
##鱷
##鱸
##鱼
##鱿
##鲁
##鲈
##鲍
##鲑
##鲛
##鲜
##鲟
##鲢
##鲤
##鲨
##鲫
##鲱
##鲲
##鲶
##鲷
##鲸
##鳃
##鳄
##鳅
##鳌
##鳍
##鳕
##鳖
##鳗
##鳝
##鳞
##鳥
##鳩
##鳳
##鳴
##鳶
##鴉
##鴕
##鴛
##鴦
##鴨
##鴻
##鴿
##鵑
##鵜
##鵝
##鵡
##鵬
##鵰
##鵲
##鶘
##鶩
##鶯
##鶴
##鷗
##鷲
##鷹
##鷺
##鸚
##鸞
##鸟
##鸠
##鸡
##鸢
##鸣
##鸥
##鸦
##鸨
##鸪
##鸭
##鸯
##鸳
##鸵
##鸽
##鸾
##鸿
##鹂
##鹃
##鹄
##鹅
##鹈
##鹉
##鹊
##鹌
##鹏
##鹑
##鹕
##鹘
##鹜
##鹞
##鹤
##鹦
##鹧
##鹫
##鹭
##鹰
##鹳
##鹵
##鹹
##鹼
##鹽
##鹿
##麂
##麋
##麒
##麓
##麗
##麝
##麟
##麥
##麦
##麩
##麴
##麵
##麸
##麺
##麻
##麼
##麽
##麾
##黃
##黄
##黍
##黎
##黏
##黑
##黒
##黔
##默
##黛
##黜
##黝
##點
##黠
##黨
##黯
##黴
##鼋
##鼎
##鼐
##鼓
##鼠
##鼬
##鼹
##鼻
##鼾
##齁
##齊
##齋
##齐
##齒
##齡
##齢
##齣
##齦
##齿
##龄
##龅
##龈
##龊
##龋
##龌
##龍
##龐
##龔
##龕
##龙
##龚
##龛
##龜
##龟
##︰
##︱
##︶
##︿
##﹁
##﹂
##﹍
##﹏
##﹐
##﹑
##﹒
##﹔
##﹕
##﹖
##﹗
##﹙
##﹚
##﹝
##﹞
##﹡
##﹣
##！
##＂
##＃
##＄
##％
##＆
##＇
##（
##）
##＊
##，
##－
##．
##／
##：
##；
##＜
##？
##＠
##［
##＼
##］
##＾
##＿
##｀
##ｆ
##ｈ
##ｊ
##ｕ
##ｗ
##ｚ
##｛
##｝
##｡
##｢
##｣
##､
##･
##ｯ
##ｰ
##ｲ
##ｸ
##ｼ
##ｽ
##ﾄ
##ﾉ
##ﾌ
##ﾗ
##ﾙ
##ﾝ
##ﾞ
##ﾟ
##￣
##￥
##👍
##🔥
##😂
##😎
傂
榹
歋
搋
嗁
禠
枿
桒
墌
嗻
嫬
熫
樜
摭
崟
唫
惍
凎
崯
菳
釭
捦
釡
偀
渶
绬
媖
媏
洏
峏
猯
圌
剬
耑
偳
遄
蠝
瓃
櫑
櫐
藟
攂
礧
罍
礨
悈
溙
墁
鄤
缦
熳
獌
僈
摱
槾
癁
澓
鳏
眔
縯
蔩
螾
戭
夤
殥
璌
冹
绂
祓
沷
帨
侻
娧
兗
哾
莌
捝
涚
膍
骟
搧
傓
幖
摽
螵
慓
勡
蔈
彯
鳔
墂
徱
熛
僄
堜
萰
谰
媡
镧
湅
襕
嫃
槙
搷
瑱
傎
淔
徝
埴
嵮
傋
煹
搆
斠
觏
遘
冓
挜
蔧
熭
暳
槥
嘒
猢
媩
枞
檈
獧
儇
懁
镮
癏
阛
噮
擐
鹮
缳
彋
澴
浼
俛
莬
悗
凂
瞽
薣
鼖
鼕
臌
讣
漰
傰
剻
谸
绤
唂
隞
獓
嶅
蔜
慠
嗸
璈
嫯
廒
厫
滶
摮
膁
槏
隒
凲
尲
嵰
搛
甉
亷
嗛
缣
溓
熑
嘝
蔛
葪
悃
阃
涃
掕
庱
婈
鲮
崚
倰
堎
睖
撨
嫶
嶕
穛
膲
癄
劁
鹪
燋
潐
嶣
僬
噍
硎
渆
嗥
暤
獆
滜
槔
涐
蓜
䣨
髩
髢
髧
髣
髠
髤
髡
髥
髨
膟
漹
嘕
墕
傿
瞲
璚
噊
潏
僪
矞
劀
憰
氄
燏
獝
鹬
遹
樚
麄
蔍
鄜
廘
膔
麀
摝
麁
麃
塶
熝
啒
淈
崫
堢
湺
锜
徛
剞
婍
陭
掎
堠
帿
缑
鄇
葔
瓘
懽
虇
孉
礶
矔
爟
巏
嚾
讙
壦
蠸
酄
淲
虓
萀
猇
婋
俿
虒
勠
摎
嫪
嘐
剹
鄝
憀
漻
熮
僇
璆
樛
嵺
侸
饾
剅
壴
郖
哣
浢
俕
浨
勔
愐
媔
偭
喕
奤
湎
猵
揙
惼
徧
萹
谝
媥
唙
逖
鄅
渪
偊
萭
噉
撖
澉
曘
壖
檽
獳
薷
臑
穤
颥
嚅
燸
擩
嬬
隭
瓀
礝
襦
羺
獯
矄
曛
壎
臐
櫄
墦
膰
嶓
旙
勫
磻
襎
憣
皤
嬏
璠
噃
橎
僠
惂
萏
埳
淊
俫
崃
菂
庴
剒
逪
唶
徣
偙
渧
遆
揥
媂
崹
栱
嶎
犚
帻
蘪
攗
蒠
螅
鄎
徦
婽
猳
嗙
嫎
嵭
搒
牓
塝
媦
渒
庳
捭
陴
猈
萆
崥
婛
猄
勍
倞
剠
弶
勅
捒
娕
凁
涑
摖
傺
漈
暩
憏
隃
婾
鄃
喩
萮
媮
匬
堬
崳
嵛
磳
朆
矰
罾
橧
熷
嶒
竲
鄫
缯
璔
甑
藠
皨
酏
酡
莭
揤
堲
嶵
檌
锒
哴
俍
悢
稂
烺
埌
倯
瀤
耲
櫰
瓌
懆
橾
缲
鄵
嬠
幧
榀
矂
氉
僺
劋
璪
襙
蒾
婻
揇
萳
蝻
唗
掹
渘
葇
猱
媃
煣
憺
谵
襜
甔
嶦
薝
幨
曕
噡
癚
绹
缶
寈
凃
悇
捈
俆
狳
唋
庩
坼
柝
跅
崪
啐
埣
捽
谇
倅
崒
嬓
薂
礉
儌
璬
燩
曒
墽
皦
噭
憿
獥
撽
揓
湤
葹
崺
埞
掟
婝
怄
沤
眍
汊
屝
厞
俉
峿
娪
逜
郚
惝
埫
绱
埁
侺
矱
臒
矆
鹱
嚄
雘
擭
蠖
镬
濩
瓁
劐
檴
嗼
幙
獏
鄚
氁
暯
塻
慔
嫫
欂
黚
黖
黕
黗
亃
甐
嫾
辚
疄
撛
獜
橉
暽
潾
瞵
璘
僯
燐
噒
浝
娏
厖
哤
狵
庬
裣
莶
猃
崄
勥
犟
蔃
摾
镪
娭
涘
逘
膬
竁
儙
蕶
燯
澪
啯
凫
蓢
樃
塱
捊
垺
哹
郛
莩
鄽
瀍
灃
寷
酆
豒
谞
揟
壻
湑
佺
偐
喭
嵃
遃
榤
嵥
塄
籰
矡
玃
貜
欔
戄
彏
躩
枼
偞
渫
惵
媟
屟
弽
揲
堞
枻
悧
猁
峲
唎
浰
惽
湣
缗
俌
檠
曔
憼
擏
璥
跞
轹
毃
鄗
暠
傐
滈
缟
禞
嗃
塙
槀
髚
熇
歊
宍
涳
啌
埪
悾
倥
墇
傽
幛
嫜
蔁
遧
暲
鄣
慞
悿
菾
掭
婖
淍
徟
啁
奝
婤
檍
噫
嬑
燱
镱
癔
澺
熺
噽
憘
暿
瞦
敼
歖
憙
揨
嵉
渟
葶
崕
啀
娾
堐
廆
熜
樬
漗
傯
憁
牕
幒
骢
廨
獬
嶰
薢
澥
檞
廦
埚
呙
脶
铯
嶚
橑
璙
嶛
膫
嫽
鹩
竂
憭
遌
锷
堮
偔
湂
卾
崿
娸
倛
唭
猉
剘
掑
帺
廋
鄋
傁
蓃
遚
獀
馊
溲
傞
蒫
嫅
嵳
溠
橓
蕣
僢
燑
墥
膧
噇
獞
徸
穜
疃
橦
犝
曈
朣
襈
噀
潠
僎
慀
膎
蒵
傒
嗘
嵠
榽
徯
埍
悁
狷
剈
弲
瀱
蘮
蔙
嫙
暶
抆
悮
俣
蕮
磶
冩
璄
獍
滰
樈
摬
傹
缬
隇
喴
媙
嬆
嶖
熻
噏
潝
愄
揋
葨
渨
嵔
懃
懄
媗
愃
塇
揎
楦
穞
氇
镥
澵
缧
蔂
樏
傫
倷
喠
隀
媑
揰
偅
堹
尰
湩
倴
莾
逩
喯
渀
捹
飡
湌
壂
礬
蠜
燓
凅
堌
崮
崓
婟
埾
陬
诹
郰
菆
掫
冣
娵
瀌
爊
儦
穮
臕
藨
皫
犥
钲
嵫
嗞
儫
籇
檺
阏
唹
媋
湷
萶
偆
堾
啋
婇
埰
寀
倸
肁
肈
禟
膅
蓎
榶
鄌
嵣
瑭
傏
煻
摅
隺
萑
奞
寉
懝
薿
嶷
儗
寲
娋
帩
陗
弰
诮
莂
哵
殳
悷
柤
葟
偟
揘
媓
堭
崲
喤
偰
葜
禊
猰
揳
蕏
橥
蒉
缋
愦
阓
阌
湲
喛
谖
愋
涭
萲
嵈
猨
牔
榑
愽
猼
煿
馎
蒪
尃
赙
庿
媌
渵
溔
蓔
榚
禚
撠
橶
壃
彊
疅
礓
橿
漧
繀
慛
墔
膗
熣
嗺
凗
獕
漼
槯
骕
瑸
傧
猚
陮
婎
唵
埯
匎
崦
菴
逫
裰
惙
娺
剟
涰
嵅
葴
嵒
澏
喦
嵓
甋
蔐
镝
蔏
樀
滳
歒
墑
凘
澌
燍
氆
潽
镨
襍
磼
潗
穕
嶀
摴
嫮
樗
鄠
娽
渌
俜
涄
蔢
嘙
樨
徲
漽
穉
摨
唡
椘
埜
曐
曑
灈
蠷
忂
躣
臞
癯
氍
戵
匷
欋
憠
劂
橛
橜
嶥
噘
嶡
镢
妗
埶
淕
勎
苲
拃
怍
胙
砟
笮
埝
惗
谂
菍
淰
嗉
溸
傃
嫊
榡
膆
塐
酁
儳
巉
劖
瀺
艬
镵
嚵
欃
垕
嬖
幦
甓
憵
礕
孹
陧
靬
靯
靪
靰
嫭
嘑
滹
摢
歑
锩
菤
啳
埢
婘
淃
惓
勌
缐
葲
厡
湶
侰
涒
峮
宭
莙
捃
濋
檚
憷
儊
喒
偺
揝
绠
郠
挭
莄
浭
峺
汭
枘
蚋
肭
篚
榧
玙
殪
撎
亄
皼
曀
涫
捾
婠
悺
逭
遟
搱
偾
崏
惛
捪
涽
阍
唿
淴
揜
啽
渰
葊
媕
儴
禳
欀
瓖
懹
蘘
蠰
瀼
穰
忀
勷
爙
躟
獽
䣥
䣧
䣬
娒
勄
挴
䣱
酠
婫
绲
崐
倱
掍
猑
惃
菎
摐
漎
揑
偛
喢
揷
锸
湼
祃
杩
湈
榠
鄍
螟
凕
幎
塓
嫇
慏
蓂
熐
猽
婑
捼
涹
唩
娚
侽
莮
捿
啛
郪
潻
栥
栨
浽
娞
俀
哸
挼
酟
酤
倮
惈
骒
捰
堁
淉
婐
猓
馃
尌
膉
獈
搤
榏
嗌
塧
哬
獋
嘷
橰
曍
皥
涍
庨
侾
宯
侲
陙
莀
帪
浱
屒
圬
姮
纡
熀
愰
滉
榥
隥
撜
墱
邆
竳
憕
僜
镫
磴
嬁
璒
嶝
膯
淗
陱
婅
堼
湗
崶
葑
堨
愒
幆
曷
嵑
堉
淯
逳
俼
掦
逷
濖
宲
昺
昞
峾
垽
郾
愝
隁
揠
钽
怛
儽
癳
欙
虆
噵
檤
悛
逡
馂
埈
捘
荾
狻
陖
瑺
缊
韫
媪
愠
嗢
蒀
嘠
戞
俶
掓
埱
婌
蘶
犩
倠
豕
剢
诼
瑢
愹
塎
彮
傛
嵱
搈
嫆
骪
尳
骩
骫
诂
俵
笕
婂
淿
啍
弴
埻
崞
怗
濨
礠
嬨
璲
嬘
穟
礈
禭
襚
澻
檖
癙
鼤
鼧
鼥
鼪
鼢
鼩
鼨
鼦
鼣
鼫
媆
偄
愞
渜
堧
陾
滃
暡
嵡
塕
傟
勜
蓊
慃
芉
淐
阊
鲳
抻
胂
槺
嫝
漮
凊
掅
阒
阗
嫋
榒
搦
愵
讵
捯
菿
橭
嫴
滖
缞
渹
揈
塃
娷
棰
崜
涶
菙
厜
缍
倕
蠓
溕
鹲
幪
獴
懞
曚
礞
塜
氋
癗
礌
檑
蕺
檝
擑
嶯
濈
礤
攃
櫒
漄
嘊
蓳
嫤
漌
歏
廑
馑
慬
殣
墐
厪
嚖
櫘
偡
媅
愖
啿
嵁
揕
噑
暭
獔
槹
滫
樇
嵖
柦
馇
猹
溷
慁
屚
琤
犪
躨
巙
屣
漇
嘥
蓰
猡
谉
渖
涖
浖
哷
埓
埒
櫱
糱
孼
蠥
傶
慽
墄
摵
嘁
慼
勯
鹯
儃
襢
邅
憻
皽
璮
澶
嘾
磹
禫
墰
燂
镡
曋
瞫
憛
撢
橝
炰
窐
漥
啣
蓈
嫏
漦
犛
嫠
孷
剺
堶
媠
榎
嗄
傕
蒮
搉
帱
诪
俦
埦
倇
啘
涴
捥
帵
獿
蘷
巎
燠
墺
燚
嬞
蓶
嶉
俽
惞
锨
焮
遬
嫰
潄
欶
遫
慗
蔌
樕
萿
逴
婥
啅
獉
瑧
嫀
搸
陫
剕
渄
猅
潡
墪
礅
噋
橔
撴
憝
暾
撉
憞
镦
犜
澣
檊
僿
菶
埲
唪
淎
琫
橊
癅
璢
澑
磙
蓘
懩
攁
瀁
勈
埇
悀
槅
搹
鬲
滆
塥
蒚
湓
葐
啈
婞
涬
圉
櫂
蠗
藋
矅
嚁
嬥
籊
堳
郿
葿
猸
镅
捗
徏
荹
蜑
梥
庺
懪
犦
襮
嚗
儤
酃
醽
櫺
蘦
孁
莍
捄
俅
逑
浗
溗
塖
禴
龢
蘥
龡
瀹
籥
瓈
邌
唀
媉
剭
偓
寭
憓
潓
僡
橞
俒
捖
唍
垸
骭
骬
潶
偧
奓
哻
娨
垾
猂
嶑
潒
勨
蕀
襋
僰
燽
懤
歔
戯
溁
蝾
廇
嵧
熘
骝
飗
塯
蒥
媹
媴
溒
榬
撔
暻
澋
幜
萉
淝
俷
娦
捠
捚
悝
荲
娌
湱
剨
枓
葙
缃
旉
庥
煾
蒽
峳
浟
莜
葠
寑
惏
鳪
鳭
勦
鄛
隟
缫
漅
樔
摷
璅
髜
巐
俰
萂
啝
潩
熼
禩
兾
撗
熿
蟥
墴
曂
鐄
獚
僙
傉
缛
溽
搙
蓐
媷
槈
嗕
鄏
懔
廪
檩
癝
燷
秕
仳
蚍
槢
翫
漝
嶍
慴
滪
蓣
堦
喈
勓
蒈
湝
蘗
蘖
糵
娎
哳
狾
埑
菻
冧
赲
偢
媝
愀
镋
谠
蘲
灅
樒
滵
蔤
屙
锕
娿
揵
湕
徤
獦
擖
臈
礍
嶱
掮
猏
菺
埥
郬
圊
啨
崝
薥
臅
擉
斣
劅
噣
歜
斀
襡
忾
饩
螬
蓸
慒
嶆
傮
酑
酎
矀
癓
鬽
鮚
鮖
鲇
攭
欚
劙
伧
蓠
缡
摛
樆
甛
篫
萠
倗
弸
奟
淜
堋
掤
溾
媿
隗
缌
揌
愢
媤
葸
偲
澯
薒
殩
壡
猊
萖
阋
唲
淣
堄
婗
掜
郳
曃
叇
悰
萗
骔
倧
崈
徖
孮
婃
猔
嵲
暞
甈
瀿
蘩
熢
塳
漨
膖
摓
槰
嚯
臛
籗
瀖
皬
礭
癨
曤
矐
攉
幏
镓
榢
爝
灂
釂
皭
穱
篾
崾
葽
婹
喓
偠
戉
耱
礳
嚰
噿
濢
璻
臎
蓕
溎
惿
徥
隄
寔
湜
偍
崼
遈
蛴
寘
蒖
瞨
襆
镤
幞
穙
獛
喨
湸
劓
濞
襣
擤
鼽
齀
鼿
鼼
嚊
嵄
媄
渼
倳
剚
犓
搊
煼
蒭
镴
犣
儠
擸
僣
鱽
鱾
竴
澊
撙
燇
噂
墫
僔
嶟
鳟
壿
燫
薕
嬚
臁
劆
骣
僝
樼
藦
嚤
擵
莑
埄
浲
捀
柙
塛
凓
傈
瑮
搮
浘
屘
荱
缒
塠
娹
婱
惤
唈
俋
悒
浥
遡
槊
嗍
愬
搠
蒴
枂
鈅
抈
岄
槸
槷
骓
隿
釄
灖
劘
爢
戂
攠
孊
籓
僘
厰
氅
榟
峷
燪
濍
憽
檧
卙
櫁
藌
滽
牅
嘃
嫞
槦
鄘
咡
咠
摍
樎
侩
澨
遾
墎
漷
槨
烋
烌
溚
匒
剳
偱
揗
潎
暼
徶
嫳
獙
撆
獘
嫒
叆
瑷
俇
诳
浡
郣
哱
侼
挬
潵
馓
葥
媊
湔
偂
嫍
慆
塪
槄
瑫
搯
幍
霒
霕
噳
澞
浾
捇
塈
蔇
摡
臙
曣
酀
敉
礊
檕
峛
峢
摚
樘
憆
隚
嘡
漟
殧
僦
憱
噈
攮
儾
灢
欜
馕
蕹
噰
澭
癕
胷
辎
缁
菑
湽
锱
壀
擗
檘
隦
澼
礔
聍
幋
媻
搫
蒰
殸
撀
漀
铌
萻
揞
隌
摿
喑
堷
偣
愔
湆
碪
峝
凐
陻
鄄
唦
猀
逤
挱
醢
盦
醓
懅
壉
勮
臄
澽
璩
塮
樋
熥
蓪
嗵
喼
麨
麫
麧
塂
槬
摦
殚
啴
挰
悜
侱
浧
徎
渞
堗
揬
葖
湥
粞
靱
靮
靭
勀
勊
娔
馉
愲
嗗
蓇
搰
偖
陼
帾
媎
哠
峼
勂
捁
俈
悎
猤
湀
骙
鄈
瀸
孅
櫼
襳
攕
婄
勏
掊
竒
嘬
熶
襊
樶
蕞
掼
犘
塺
晠
狶
郗
俙
浠
悕
莃
蒢
叞
嵴
塉
膌
埭
捸
喥
剫
熩
蔰
槴
獂
傆
榞
嫄
蒝
啑
萐
倢
寁
徢
峗
峞
夎
莝
侳
骍
垶
挵
哢
撄
猞
涻
倽
濭
壒
臩
燛
嵍
堥
禥
璂
晑
煺
婩
堓
噆
橬
谮
撍
熸
憯
嶜
墡
磰
鄯
嫸
僐
橏
葎
嵂
挮
俤
绨
慉
傗
滀
槒
鄐
漶
槵
婏
寃
堍
猐
唴
羗
傌
馾
馯
婒
剡
烾
菼
倓
埮
惔
掞
郯
溇
褛
蒌
嵝
偪
愊
揊
堛
湢
葍
畣
匔
躳
堟
剶
彖
掾
蒃
猭
嗾
蔟
娝
俖
厍
捔
觙
觓
崅
埆
唃
搌
榐
埧
黺
黻
嘋
漖
嬊
黾
渑
欈
酅
儶
瓗
蠵
雩
雫
雭
熆
圔
榼
盍
馌
廅
溘
搕
涺
崌
琚
倨
嶐
蕯
漋
橤
菧
掋
儁
寯
檇
懏
臇
籝
攍
矒
婼
鄀
逽
掿
渃
逎
撺
镩
姘
蓱
洴
帡
葮
塅
椴
媨
揂
崷
偤
喁
嵎
媀
堣
庽
湡
樉
塽
漺
傸
摤
慡
沆
骦
礵
灀
鹴
媸
滍
崡
挶
蔹
葏
堻
摣
樝
蔖
厀
嗐
犗
搳
埽
菷
驺
侘
挓
煕
媐

渻
偗
浤
峵
瀽
攓
澸
揦
诓
萓
栣
栠
搾
偫
崻
勲
憅
嗏
灉
廱
墚
鼒
薡
濎
鼏
檙
鼑
淛
猘
槇
埙
涢
氃
勭
浶
哰
酂
臜
缵
縢
潫
勬
嚆
藳
燺
藁
蔀
廍
棃
柇
棞
晀
溛
搲
礣
櫗
幭
懱
瀎
莤
揿
嵚
涊
荵
壌
穣
偹
俻
慇
溵
蒑
淧
慅
溞
捬
绺
倃
偬
愡
湒
偮
掝
淢
惐
擮
嶻
蠘
搝
殠
鄓
偋
幈
伱
搿
搻
㭁
礽
搚
嗋
熁
愶
葧
菵
噟
莳
埘
酞
酜
䣭
蓍
愭
榰
搘
櫋
矏
蝤
唒
庮
塟
薜
湴
掽
扙
粀
唼
淁
帹
菨
媢
萺
澁
蕋
蘃
瀜
曧
嶊
蓷
倎
捵
婰
唺
淟
呰
啙
碜
骖
嚘
懮
鄾
耰
镹
髟
歘
崤
倄
郩
籱
靃
媶
搑
傇
礃
懻
槠
滠
嗫
蕗
浂
渕
靸
靫
倻
龀
龁
奛
朚
槉
愱
蒺
癍
懥
慝
嫟
懗
爀
嘫
橪
崀
莨
磸
橂
谡
溭
禝
唅
娢
浛
籞
蘌
莰
蕫
罿
劄
撘
峈
峉
凚
僸
澿
瀓
藢
罴
湹
渳
葞
笤
蕖
璖
爔
僷
擛
瞸
冟
唣
蘁
櫮
涾
崉
屖
厗
潥
憟
僳
壄
誊
湦
彨
逦
鄹
藂
葾
惌
薮
偝
鄁
膣
潌
檅
薉
奯
苾
庼
嫱
甏
憉
遳
蓌
惸
恂
莦
褰
摏
憃
愘
揢
婓
奜
鄷
蘨
櫾
伥
昹
崣
蓡
寖
镲
檫
潳
廜
峹
甗
鬳
蘜
巈
愅
缂
椉
悂
璷
懯
羇
覉
掯
熓
隖
矁
僽
炱
炲
薤
韮
菥
唽
濗
羃
蔲
滱
湨
郹
嚜
爅
溹
槜
厧
矎
藑
襶
瀻
撱
憜
嫷
嶞
蘙
蠮
滒
藄
濝
櫀
畆
畒
宱
莋
陚
娬
倵
菉
逯
熋
莁
䣷
驽
孥
胬
砮
笯
伮
駑
悫
碻
愨
碏
趞
琷
皵
蒛
硞
慤
闋
墧
礐
腘
蜾
馘
膕
聝
堝
蟈
鈛
咼
囯
囶
圀
彉
漍
幗
囻
彍
輠
鐹
濄
綶
錁
瘑
嘓
慖
蔮
餜
褁
鹗
苊
锇
阨
鰪
蕚
詻
阸
頞
鍔
軛
鶚
讍
誐
咹
歺
磀
閼
砨
餩
囮
珴
礘
枙
琧
戹
吪
咢
睋
鑩
砈
皒
妸
魥
頋
騀
砐
姶
歞
軶
迗
遻
鵈
呝
齃
諤
豟
岋
峩
蚅
齶
覨
妿
屵
譌
鵞
堊
魤
鰐
頟
僫
鈋
硆
蝁
痾
擜
芄
盌
鎫
瞣
梚
塆
鋄
薍
椀
輐
抏
汍
岏
刓
睕
綩
脕
紈
晥
妧
壪
澫
踠
錽
綰
杤
忨
鋔
貦
笂
琓
卐
蟃
贃
晼
贎
诒
铱
镒
峄
钇
欹
怿
圯
佾
瘗
讉
黟
迻
鎰
顗
螘
袣
頉
齮
踦
齸
藙
蓺
笖
賹
鷧
裛
艤
簃
舣
蛡
肊
訑
迆
詒
貤
褹
鶃
螔
匇
釴
嫕
墿
囈
弬
浳
縊
硛
讛
跠
歝
頥
嬄
巸
秇
蛜
痬
鳦
嫛
栧
鉯
檹
壱
渏
耴
庡
栘
彜
衵
瀷
廙
箷
帟
乁
椬
螠
詍
稦
嶬
呹
桋
鈠
洢
恞
礒
鷁
虉
鏔
曎
畩
鶍
鯣
跇
偯
鈘
顊
竩
譩
垼
嬟
苅
鸃
鷖
殔
棭
觺
夁
宐
鷊
黓
鷾
乊
勩
珆
艗
鶂
栺
瓵
醷
斁
黳
匜
嶧
湙
籎
繄
瞖
呭
豷
殹
瘞
峓
玴
郼
坄
貖
燡
伇
瘱
拸
誃
暆
衪
沶
釔
伿
豙
圛
柂
帠
弌
謻
冝
毉
飴
醳
寱
袘
枍
泆
襼
霬
熤
佁
焲
萟
蛦
芅
吚
穓
扅
贀
羛
瑿
彞
劮
侇
苢
靾
鹝
繶
狋
轙
骮
銥
敡
扆
饐
禕
詑
耛
欥
悘
豛
勚
輢
宧
怈
羠
裿
欭
旑
鹢
衤
鹥
辷
悥
檥
鐿
懌
兿
杙
彛
攺
炈
椸
熪
訲
晹
狺
洇
吲
铟
龂
霪
鮣
骃
蟫
粌
訚
禋
秵
絪
駰
闉
鷣
裀
隂
茚
齗
霠
銦
憗
噾
瘖
鞇
酳
讔
韾
慭
侌
磤
鈏
趛
阥
訔
乑
懚
淾
泿
婣
湚
訡
栶
檃
赺
犾
噖
檼
歅
濥
乚
櫽
朄
烎
猌
諲
檭
圁
緸
嚚
飮
輑
垔
婬
筃
嶾
廕
荶
廴
碒
誾
滛
斦
囙
癊
冘
濦
靷
珢
鈝
蘟
洕
苂
憖
凼
砀
菪
逿
簜
趤
筜
蟷
瞊
簹
讜
澢
璗
礑
瓽
垱
璫
壋
珰
碭
艡
灙
闣
雼
欓
儅
譡
愓
蘯
婸
圵
攩
乇
鼍
箨
鮀
陁
袉
讬
袥
沲
侂
扡
鵎
駞
驝
汑
蘀
狏
杔
馱
鬌
鼉
砤
籜
迱
挩
楕
鰖
沰
飥
咃
饦
槖
魠
岮
彵
碢
紽
萚
拕
毻
仛
毤
榘
趄
龃
踽
鞫
苴
菹
醵
窭
鮈
锔
袓
椐
虡
屦
鐻
犋
秬
跼
踘
鼰
粷
跔
駶
耟
爠
諊
椈
姖
巪
鶋
泃
怇
弆
閰
昛
蜛
砠
啹
窶
洰
豦
鼳
詎
毩
狊
怚
蚷
腒
跙
躆
鮔
寠
簴
岠
聥
抅
愳
粔
艍
烥
鵙
輂
躹
凥
襷
擧
椇
鵴
屨
怐
匊
檋
驧
拠
貗
罝
鋦
婮
梮
毱
泦
歫
欅
齟
趜
蹫
駏
眗
鶪
痀
邭
鴡
乬
筥
犑
籴
羝
碲
鞮
磾
袛
觌
觝
禘
篴
釱
糴
聜
鉪
僀
奃
螮
仾
彽
藡
枤
遰
苖
軧
坘
坔
珶
腣
鍉
踶
梊
廸
頔
蔋
拞
覿
焍
蹢
呧
馰
鯳
墬
眱
鸐
豴
杕
梑
慸
嶳
摕
趆
鬄
阺
啇
埊
玓
旳
蔕
逓
怟
鏑
蝃
厎
弤
祶
詈
枥
鲡
鳢
粝
疠
黧
呖
苈
鱧
疬
篥
坜
麜
醨
貍
磿
褵
苙
脷
綟
鋫
粴
藶
鯏
讈
謧
轢
鏫
鱱
鳨
濿
酈
刕
鴗
邐
癧
茘
蛠
纚
爏
櫪
鑗
悡
孋
蟍
朸
錅
兣
蠇
欐
盠
轣
梸
縭
灕
鉝
厤
棙
爄
栛
蝷
菞
竰
杝
屴
瓥
鬁
攊
蟸
鸝
犡
鎘
巁
鱳
礰
穲
糎
艃
瓑
蚸
躒
癘
囇
皪
岦
蠫
斄
梩
蘺
鱺
囄
廲
儮
靋
厯
瓅
砅
剓
犂
盭
禲
櫟
驪
觻
沴
糲
蜧
嚦
睝
鵹
曞
攦
檪
蔾
櫔
鷅
暦
婯
娳
珕
筣
隷
鯬
秝
簻
膼
髽
檛
夋
帬
囷
裠
蕅
鏂
熰
謳
漚
腢
吘
齵
慪
塸
櫙
膒
鴎
藲
锬
醰
罈
藫
醈
貚
痑
暺
餤
怹
擹
僋
榃
舕
嗿
罎
湠
舑
傝
鉭
壜
顃
錟
墵
譠
賧
憳
眇
杪
鹋
緲
緢
竗
鶓
篎
鱙
嫹
玅
鼈
蛂
龞
咇
襒
虌
蟞
癟
镞
葅
珇
踤
踿
唨
靻
箤
卆
蒩
哫
爼
鎺
鏃
啭
譔
顓
篹
蟤
塼
灷
膞
甎
籑
叀
瑑
諯
囀
竱
孨
鄟
瑼
磗
鱄
腞
嫥
鲆
軿
聠
蛢
屛
塀
凴
頩
岼
輧
荓
蚲
帲
郱
竮
鮃
慿
甹
泙
胓
甁
玶
焩
砯
呯
箳
簈
缾
艵
砉
锪
钬
艧
鈥
耯
蒦
楇
佸
咟
沎
秳
吙
旤
眓
嚿
鍃
耠
謋
閄
騞
邩
秮
辋
彺
盳
徍
尣
尪
誷
蚟
蝄
徃
輞
兦
亾
尩
瀇
蛧
罒
莣
朢
棢
迋
仼
尫
暀
膶
閠
橍
瞤
笊
鮡
窼
炤
狣
枛
盄
垗
爫
駋
瞾
鉊
妱
燳
巶
曌
鍣
罀
瑵
羄
旐
佋
餍
厣
恹
酽
谳
罨
硏
顩
蝘
綖
鷃
軅
麣
龑
莚
硽
饜
醼
黡
厴
櫩
焑
鴈
牪
巌
懨
鴳
壧
妟
騐
熖
嬮
抁
楌
讌
黤
灩
鷰
覎
焔
訮
烻
椼
匽
躽
巘
讠
釅
壛
蔅
剦
猒
鰋
虤
姸
扊
閆
郔
贗
黭
巗
酓
醶
椻
騴
欕
觾
碞
黶
齴
巚
篶
噞
裺
驠
萒
夵
樮
曮
灎
灔
孍
艶
娮
揅
鳫
爓
檿
敥
渷
琂
礹
詽
黬
姲
暥
狿
贋
觃
黫
訁
乵
灧
昖
葕
齞
弇
娫
鼴
珚
豓
褗
沇
鶠
棪
懕
眳
椧
眀
掵
洺
覭
詺
朙
佲
姳
鹛
穈
跊
篃
沬
睂
媺
祙
脄
坆
禖
鶥
眛
旀
睸
鋂
燘
苺
韎
槑
脢
珻
楳
黣
鎇
痗
蝞
躾
瑂
徾
栂
腜
抺
煝
呅
嬍
绉
诌
妯
籀
赒
辀
輖
輈
盩
鸼
伷
粙
籒
葤
箒
銂
縐
詶
騆
喌
珘
荮
鵃
駎
疛
呪
侜
烐
睭
賙
冑
咮
矪
駲
炿
譸
籕
詋
郮
鯞
晭
謅
霌
甃
縻
麿
脒
粎
醿
眫
麊
醾
詸
覛
榓
銤
瓕
冞
蔝
擟
漞
沵
侎
鸍
羋
沕
宻
濔
冖
禰
洣
镾
峚
簚
袮
麛
覔
鞴
鐾
褙
鹎
誖
邶
骳
藣
牬
梖
椑
僃
犕
軰
郥
鵯
糒
愂
珼
苝
桮
昁
鉳
鋇
鞁
蛽
禙
鹚
跐
茈
餈
薋
鮆
趀
垐
鶿
佌
朿
玼
鷀
茦
蛓
骴
蠀
珁
螆
髊
泚
縒
齹
甆
鴜
辤
辝
皉
飺
偨
佽
庛
絘
刾
柌
鰧
鼟
痋
虅
霯
駦
籘
儯
幐
驣
漛
闿
锴
锎
剀
鍇
塏
炌
嵦
欬
鐦
闓
炏
鎎
颽
烗
剴
奒
輆
暟
垲
愾
踆
膥
籿
拵
侟
刌
磔
锗
禇
謺
袩
粍
詟
銸
蟅
嚞
鷓
啠
晣
馲
讁
鮿
虴
乽
籷
謫
矺
輙
悊
晢
讋
厇
襵
歽
潪
砓
踅
泶
袕
鸴
澩
嶨
雤
鷽
吷
艝
桖
狘
峃
斈
辥
辪
蒆
趐
瀥
轌
燢
岤
疶
膤
觷
鞾
乴
樰
坹
茓
蚺
袇
珃
媣
姌
肰
冄
蚦
呥
蒅
袡
衻
繎
聬
鹟
罋
鶲
齆
奣
攚
瞈
鎓
螉
驵
贜
牂
賘
弉
駔
賍
銺
匨
羘
饧
蹚
羰
螗
鼞
矘
耥
铴
糃
摥
橖
儻
爣
餳
鎕
啺
踼
蝪
饄
鶶
篖
鏜
坣
赯
磄
鐋
鎲
伖
戃
鞺
闛
钂
糛
餹
薚
偒
曭
夞
竵
顡
鴓
鑖
搣
薎
衊
孭
哶
覕
吀
鱴
烕
芗
衖
鲞
蟓
饟
稥
驤
鄊
鐌
襐
萫
曏
珦
緗
蚃
姠
栙
麘
絴
缿
銄
佭
蠁
鮝
銗
瓨
鱜
鯗
亯
鱌
鄕
膷
楿
鱶
薌
跭
诜
矧
鲹
詵
鯵
姺
氠
涁
覾
駪
籶
敒
罙
甧
宷
鋠
脤
讅
裑
眒
訠
薓
榊
瘮
祳
頣
魫
昚
扟
籸
鵢
弞
愼
鯓
罧
蜄
堔
妽
兟
矤
眘
穼
柛
鰰
訷
甡
屾
鰺
侁
邥
棽
瘆
圮
鼙
铍
庀
淠
芘
鲏
鸊
魾
鮍
腗
錃
鷿
秛
肶
蚾
苉
毞
狉
錍
髬
岯
銢
阰
朇
羆
鈚
蚽
炋
耚
狓
脴
釽
駓
豼
磇
豾
魮
嚭
旇
紕
蠯
焷
抷
鈹
秠
嫓
諀
稫
篺
鴄
鵧
伓
鉟
鈈
疋
疈
銔
翍
螷
伾
旯
砬
瘌
鞡
藞
蝲
攋
磖
楋
鯻
溂
鬎
爉
瓎
嚹
蝋
辢
揧
翋
柆
鑞
硸
郏
跏
笳
袷
蛱
铗
瘕
恝
麚
豭
貑
玾
斚
犌
郟
忦
圿
抸
跲
斝
鉿
蛺
糘
椵
耞
鵊
唊
頬
槚
拁
毠
鴶
叚
梜
鋏
檟
裌
浹
鎵
泇
餄
扴
埉
乫
鉫
腵
稖
艕
玤
鞤
蜯
棓
垹
縍
邫
幇
幚
髈
筢
妑
掱
舥
帊
袙
潖
皅
魑
瘛
螭
鸱
坻
茌
粚
趩
眵
飭
絺
胵
鶒
鴟
誺
湁
袲
硳
恜
彲
懘
岻
鉓
瞝
痓
貾
饎
趍
蚇
箎
雴
歭
銐
筂
勑
叺
欼
蚳
齝
裭
竾
妛
噄
抶
翤
瘈
謘
灻
肔
翨
麶
跮
袳
鷘
瓻
攡
鵄
翄
荎
痸
黐
杘
訵
胣
垑
腟
鉹
卶
彳
侙
赿
拰
脌
囜
蚧
讦
骱
絜
褯
鲒
脻
蓵
稭
蜐
袺
尐
蛶
卩
媘
蠽
劼
魪
砎
煯
鞂
蝍
謯
楐
櫭
鶛
癤
掶
衸
刼
巀
痎
丯
魝
庎
毑
楬
疌
鍻
崨
椄
岊
鉣
楶
岕
偼
滐
幯
吤
蠞
踕
刧
迼
琾
媫
昅
鎅
飷
鞊
桝
刦
蝔
觧
衱
畍
訐
誱
卪
莼
蝽
蓴
錞
鯙
輴
賰
鰆
滣
惷
湻
萅
睶
瑃
箺
漘
蒓
橁
槆
旾
犉
鶞
醕
鶉
暙
杶
氩
迓
睚
砑
齾
岈
錏
痖
铔
乛
犽
玡
聐
枒
瑘
蕥
唖
椏
氬
孲
鐚
笌
劜
圠
瘂
埡
庌
掗
襾
鵶
厓
厊
厑
庘
稏
齖
俹
窫
耧
謱
蔞
螻
塿
熡
漊
廔
軁
瞜
耬
嶁
甊
瘺
遱
瘻
艛
僂
鞻
慺
兡
鲂
匚
钫
邡
趽
眆
鰟
牥
旊
魴
鴋
倣
堏
昘
埅
錺
汸
蚄
鈁
鶭
瓬
淓
爨
穳
躥
櫕
鋑
巑
鑹
簒
攛
欑
诖
鸹
罣
栝
詿
鴰
緺
坬
颪
煱
罫
歄
剮
銽
絓
叧
冎
騧
啩
趏
踻
螫
筮
炻
鲥
祏
铈
絁
贳
邿
眎
鍦
鉃
籂
鳾
鉐
襫
鉂
鈰
鶳
鰤
柹
鳲
卋
叓
礻
塒
襹
饣
鲺
旹
呩
奭
忕
鰣
褷
乨
榁
兘
煶
篒
笶
舓
觢
飠
烒
釶
餝
嬕
嵵
諟
鉽
瑡
丗
釈
眡
銴
竍
浉
峕
睗
鰘
栻
亊
鉇
謚
鸤
戺
簭
宩
昰
枾
榯
佦
鼭
溮
乭
蒒
溡
餙
姼
鯴
鉈
眂
呞
恀
栲
丂
洘
鮳
鲓
攷
鯌
髛
荭
竑
闳
訇
纮
魟
翃
黉
闀
訌
鍧
鋐
娂
銾
晎
粠
灴
玒
輷
宖
焢
翝
苰
叿
閧
垬
潂
軣
耾
汯
葒
嚝
鞃
黌
妅
谼
霐
吰
谹
仜
鉷
鈜
葓
霟
谾
硔
綋
竤
嗊
玜
紭
渱
呍
鬨
澒
闂
硡
蔎
輋
摂
虵
欇
厙
騇
蠂
灄
檨
賖
韘
蛥
賒
畬
垅
砻
眬
栊
癃
鑨
襱
霳
龒
躘
驡
礱
龓
槞
壠
巃
巄
曨
蠬
爖
昽
篢
矓
篭
屸
鸗
徿
蠪
櫳
竉
礲
靇
贚
湰
蘢
梇
儱
豅
鏧
蟕
酔
纗
祽
稡
辠
枠
晬
朘
錊
絊
鋷
栬
穝
酻
蟪
虺
咴
隳
翙
浍
袆
哕
顪
蚘
翬
鮰
譓
篲
詯
翚
隓
孈
煇
燬
瀈
湏
媈
瘣
彚
廽
殨
鏸
圚
拻
徻
蜖
褘
濊
澮
廻
豗
颒
禈
屶
檓
烠
睳
鐬
鰴
屷
撝
洃
蛕
獩
泋
頮
芔
懳
璤
噅
譭
痐
嬒
毇
翽
闠
囘
佪
噕
靧
璯
楎
餯
烣
灳
幑
恛
譿
繢
藱
逥
囬
蘳
瞺
蝮
蚨
砩
鲋
跗
菔
罘
蜉
怫
拊
黼
桴
茀
袝
滏
绋
笰
鮄
郙
稃
祔
鳆
鶝
鈇
綍
禣
訃
艴
鍑
虙
髴
韨
蚹
玞
咈
畐
蚥
鴔
柎
烰
弣
阝
糐
鉘
鰒
紱
麬
荂
秿
襥
諨
偩
鳧
翇
怤
鬴
颫
嬔
栿
椨
粰
盙
姇
焤
鳬
麱
媍
鳺
琈
賻
刜
芣
甶
艀
坿
鉜
玸
蕧
覄
鵩
胕
鍢
駙
簠
輹
詂
垘
峊
痡
岪
娐
蛗
豧
紼
綒
萯
踾
炥
蜅
畉
柫
砆
稪
妋
緮
罦
絥
枎
洑
鮲
泭
箙
竎
韍
乀
棴
蝜
乶
紨
筟
荴
衭
椱
鮒
邞
夬
枴
箉
叏
柺
摑
恠
膂
絽
藘
閭
稆
郘
鑢
梠
焒
垏
繂
膢
儢
寽
穭
箻
捛
勴
爈
馿
祣
膐
氀
褸
挔
鷜
櫖
舨
螁
褩
螌
魬
怑
姅
岅
鉡
鳻
斒
瓪
昄
靽
鈑
坢
柈
蝂
辬
秚
攽
荩
钅
卺
赆
觔
賮
矝
齽
菫
砛
祲
煡
劤
璡
覲
縉
搢
瑨
溍
饉
兓
侭
珒
伒
釒
璶
紟
嬧
琻
浕
黅
巹
埐
濅
荕
藎
釿
濜
贐
鹶
琎
壗
嚍
枃
褴
罱
讕
葻
糷
漤
譋
灠
繿
孄
幱
襽
囕
钄
燗
瓓
斕
襴
璼
囒
醂
儖
燣
爤
礷
孏
嚂
爦
躝
擥
嬾
壈
懢
欗
韊
灡
灆
爁
厱
籣
鑭
顲
襤
鯮
腙
磫
縂
錝
倊
騣
緃
嵸
惾
搃
豵
鑁
糉
瘲
猣
摠
熧
葼
稯
椶
翪
潈
碂
鏓
蝬
朡
嵕
昮
疭
縦
揔
蓗
鬷
鯼
捴
惣
鬉
嵏
糭
騌
踨
緵
鍐
堫
砦
瘵
榸
夈
檡
粂
鉙
闩
腨
閂
詾
诇
忷
敻
焸
恟
焽
詗
哅
匂
賯
讻
夐
訩
榇
綝
蔯
軙
麎
贂
鍖
螴
夦
磣
莐
硶
櫬
讖
鈂
賝
訦
樄
墋
謓
踸
醦
煁
儭
鷐
嚫
迧
諶
瘎
茞
齓
諃
疢
霃
敐
趻
曟
趂
薼
齔
苧
澝
矃
寕
聹
倿
儜
薴
橣
鸋
寜
嬣
鬡
鑏
侫
寗
寍
鞎
佷
拫
詪
纕
鬤
鈤
囸
釰
驲
馹
裢
蠊
奁
鬑
櫣
褳
翴
籢
匳
鰱
瑓
蘞
螊
縺
瀲
摙
奩
匲
鄻
覝
殮
謰
嗹
蘝
梿
澰
襝
濓
羷
錬
纞
蹥
鰊
僆
磏
籨
聮
慩
聨
聫
錾
糌
昝
趱
酇
蹔
儹
儧
兂
瓚
攅
饡
鏨
簮
趲
灒
禶
鐟
濽
鄼
鐕
桚
賛
襸
瓉
讃
銧
桄
臦
欟
侊
珖
灮
炗
炚
黆
炛
輄
姯
茪
垙
烡
胼
蹁
犏
跰
楩
騗
駢
諞
腁
諚
楄
賆
騈
鶣
覑
貵
骿
魸
鍂
囨
茑
嬲
蔦
褭
樢
嬝
瓼
遖
戁
枏
抩
柟
煵
暔
諵
畘
覅
鶎
鐏
鷷
罇
鱒
繜
譐
銌
陉
荇
钘
铏
篂
臖
裄
緈
滎
鮏
洐
睲
箵
蛵
觪
鉶
郉
莕
煋
哘
侀
觲
鈃
謃
鋞
銒
騂
陘
娙
瑆
鯹
嬹
戆
罁
筻
堽
堈
焹
鎠
冮
戅
疘
棡
牨
矼
犅
焵
掆
罓
椤
荦
瘰
泺
蠃
騾
镙
蓏
驘
覙
鸁
鴼
饠
纙
剆
儸
濼
玀
鮥
笿
臝
鏍
硦
躶
洜
覼
罖
欏
犖
曪
鵅
腡
頱
覶
礸
遪
囃
瘿
茔
媵
蓥
蝿
韺
軈
锳
譻
濚
廮
甇
濙
孾
盁
藀
鱦
謍
珱
鴬
鶑
鞕
癭
灐
濴
褮
瓔
嚶
礯
蘡
矨
煐
鎣
灜
攖
潁
瀴
罃
鐛
僌
蛍
朠
鸎
賏
瀯
暎
譍
籯
櫿
巊
塋
萾
蠳
霙
蝧
愥
頴
膡
鍈
梬
鷪
孆
緓
甖
瀠
鶧
溋
碤
覮
鑍
颕
嫈
闱
韪
艉
鳚
帏
鲔
鮠
霨
鍏
鄬
洧
頠
苿
薳
讏
沩
硙
鏏
軎
鳂
磈
磑
亹
斖
濻
洈
躗
椲
愇
詴
韙
碨
芛
懀
寪
褽
闈
瀢
颹
厃
屗
楲
煟
媁
溈
徫
溦
硊
嶶
蜲
湋
鍡
蔿
揻
捤
饖
韑
霺
韡
痏
腲
轊
潙
烓
藯
醀
縅
琟
螱
覣
餧
煀
燰
潿
濰
鰄
諉
儰
緭
罻
壝
璏
喡
鮇
菋
蒍
踓
蝛
幃
椳
鰃
墛
覹
躛
僞
讆
蜼
忝
殄
畋
餂
鍩
觍
鴫
鈿
黇
覥
盷
畠
湉
靝
琠
緂
錪
塡
靔
沺
睼
賟
鷏
璳
鷆
胋
睓
痶
屇
晪
碵
闐
窴
舚
磌
誜
鼗
迯
絛
鋾
蜪
飸
醄
縚
轁
鞱
檮
弢
饀
匋
咷
裪
詜
梼
鞀
縧
綯
駣
祹
夲
騊
謟
鞉
錭
硈
圶
峠
帢
鞐
跒
拤
殎
唛
駡
禡
蔴
蟇
閁
溤
睰
亇
榪
鰢
鷌
鎷
痲
鬕
獁
遤
揁
諍
篜
踭
埩
崢
徰
抍
塣
氶
糽
晸
凧
炡
鉦
佂
聇
眐
鬇
鴊
烝
姃
愸
媜
绌
蹰
貙
鉏
鸀
蟵
榋
媰
敊
璴
柷
竐
閦
趎
躕
橻
拀
耡
藸
諔
齼
竌
蓫
欪
斶
櫉
琡
絀
珿
齭
亍
篨
踀
鶵
嘼
豖
幮
豠
裒
犃
抙
箁
錇
抔
咅
筽
钕
恧
衂
沑
朒
籹
釹
扽
扥
萜
呫
鴩
聑
蛈
銕
鐡
飻
驖
鋨
钚
逋
醭
瓿
晡
钸
篰
峬
抪
鸔
誧
轐
鵏
歨
餔
吥
踄
喸
鈽
郶
庯
柨
悑
餢
哝
秾
醲
檂
蕽
欁
繷
挊
癑
辳
襛
齈
燶
穠
禯
噥
褡
笪
跶
阘
荅
迏
繨
薘
燵
龖
呾
炟
墶
龘
亣
畗
詚
韃
鐽
迖
逹
汏
垯
躂
咑
蟽
迚
鎝
羍
荙
鎉
笚
瓱
辔
旆
帔
锫
醅
轡
裵
衃
毰
嶏
伂
阫
姵
柸
浿
馷
駍
怌
肧
斾
鳇
鰉
锽
詤
艎
炾
兤
諻
鱑
晄
櫎
瑝
巟
縨
怳
鷬
鎤
癀
鍠
楻
韹
騜
穔
篊
衁
餭
皩
趪
皝
宺
緌
鋭
繠
桵
蘂
蜹
甤
卬
岇
昻
醠
枊
蠲
睊
脧
睠
錈
飬
焆
桊
餋
鐫
呟
瓹
罥
羂
奆
鎸
蔨
縳
慻
絭
帣
裐
姢
刖
龠
籆
彟
箹
噦
蚎
爚
鉞
鸙
軏
蚏
捳
鸑
礿
篗
妜
黦
跀
彠
曱
恱
嬳
忸
狃
汼
莥
靵
牜
炄
茐
賨
蓯
聦
鏦
謥
驄
誴
樷
潨
鍯
蟌
樅
忩
緫
聡
怱
潀
瑽
瞛
焧
賩
欉
悤
暰
繱
篵
棇
爜
灇
騘
铪
螽
舯
諥
蹱
螤
茽
狆
柊
蔠
鴤
瘇
刣
妕
煄
彸
妐
衶
蚛
鈡
汷
筗
伀
銿
泈
歱
祌
衳
籦
炂
镊
齧
顳
鑷
苶
闑
踙
囁
痆
錜
钀
籋
敜
讘
嚙
隉
嶭
鑈
踗
圼
摰
囓
篞
踂
噛
躡
帇
臲
巕
脎
钑
躠
泧
虄
摋
訯
馺
鈒
隡
脔
娈
釠
虊
曫
孌
鵉
羉
灤
灓
圝
奱
圞
癵
癴
臠
饔
鳙
顒
颙
鯒
禜
鰫
鲬
鷛
嗈
愑
惥
砽
癰
怺
雝
慂
苚
鱅
柡
郺
硧
栐
醟
眲
疒
抐
鬙
铽
螣
鋱
蟘
貣
窣
觫
餗
驌
藗
鷫
粛
鯂
謖
潚
鹔
橚
殐
璛
蘓
櫯
洬
碿
蹜
趚
玊
珟
泝
縤
鋉
鱐
囌
梀
蛏
裎
枨
柽
铖
塍
酲
鐣
郕
脭
穪
絾
赪
鯎
宬
饓
堘
蟶
峸
脀
棦
鏳
朾
檉
靗
鏿
珹
筬
窚
泟
偁
睈
爯
頳
荿
碀
洆
鋮
赬
緽
澂
掁
罉
娍
騬
阷
畻
牚
棖
竀
橕
珵
菬
鞒
硗
鍬
硚
礄
繑
骹
鐰
趬
鄡
顦
殻
郻
荍
踍
磽
鞽
燆
鐈
嘺
頝
韒
躈
趫
鄥
犞
誚
藮
鍫
釥
鞩
嵪
槗
墝
仫
雮
坶
楘
蚞
鉧
霂
踇
鞪
毪
莯
畮
胟
縸
畞
炑
牳
砪
鉬
狇
凩
峔
艒
墲
毣
朰
縡
酨
溨
洅
傤
渽
烖
賳
扗
儎
睵
麇
皲
麕
鲪
袀
箘
碅
箟
蚐
鵔
皹
鍕
畯
皸
桾
鮶
麏
焌
攈
姰
鵕
攟
覠
銁
蜠
晙
鵘
呁
餕
汮
銞
匏
狍
脬
麅
軳
礮
麭
爮
鞄
礟
垉
萢
奅
褜
桛
菢
賲
袌
笣
窇
齙
怉
媬
闁
鴇
蚫
髱
勽
曓
佨
骲
珤
飹
寳
鉋
寚
勹
緥
駂
鳵
藵
襃
蕔
靌
忁
靤
铇
虣
枹
鑤
垓
陔
荄
戤
葢
姟
賅
侅
匄
晐
槩
絯
畡
絠
忋
瓂
阣
峐
郂
杚
賌
乢
槪
匃
隑
漑
豥
祴
辏
輳
腠
箠
腄
埀
搥
顀
溆
繻
魆
藚
洫
糈
諝
鄦
譃
虗
訏
魖
銊
盨
藇
聟
醑
疞
昫
欨
欰
窢
縃
珬
賉
蕦
楈
鑐
偦
幁
蒣
旴
盢
沀
垿
蝑
稰
冔
媭
喣
晇
漵
烼
烅
潊
稸
鱮
殈
伵
勗
裇
姁
驉
頊
暊
怴
魣
汿
緖
芧
珝
瞁
侐
聓
嬃
訹
卹
呴
朂
穑
濏
歮
瀒
繬
擌
轖
濇
璱
琗
洓
瘷
銫
穯
歰
閪
譅
懎
飋
鏼
穡
栜
迠
硩
唓
硨
頙
蛼
屮
撦
爡
莗
瞮
伡
聅
勶
烢
俥
咝
笥
锶
鸶
汜
耜
兕
鼶
覗
鈶
鷥
飔
蕼
蟖
螄
杫
釲
磃
罳
厶
孠
楒
牭
竢
佀
禗
蜤
貄
駟
颸
儩
泀
飤
蕬
噝
籭
糹
亖
娰
鉰
洍
銯
柶
緦
纟
鐁
恖
騦
瀃
鋖
鈻
蟴
肂
泤
诨
繉
轋
殙
焝
棔
閽
睧
琿
睯
昬
堚
諢
鼲
忶
圂
觨
梡
蒯
狯
哙
鲙
郐
鄶
擓
圦
凷
儈
廥
鱠
獪
噲
墤
糩
旝
巜
颀
亓
芑
桤
碶
綮
汔
蜞
碕
鲯
鯕
跂
頎
磜
蛣
諆
麡
磩
蟿
鬐
屺
鼜
簯
蚑
鬿
闙
旂
懠
晵
鶀
釮
艩
迉
缼
芞
纃
湇
綨
諬
棊
亝
玂
栔
錡
檱
磧
忯
呮
暣
嵜
軝
疧
盵
螧
萕
憇
蜝
攲
桼
矵
岓
緕
諿
粸
蘄
榿
棨
綥
褄
緀
邔
籏
鵸
呇
簱
鏚
踑
斉
夡
蚔
盀
噐
罊
騹
蚚
褀
忔
僛
紪
肵
霋
魌
鶈
啔
玘
斊
欫
唘
蠐
颎
扃
絅
褧
駉
埛
熲
澃
僒
煛
蘏
浻
蘔
烱
逈
駫
泂
冂
冋
坰
煚
綗
飧
狲
薞
簨
槂
搎
猻
鶽
蓀
箰
飱
蕵
鎨
濉
繸
葰
眭
譢
繐
鞖
韢
亗
旞
夊
髄
膸
煫
瀡
賥
芕
砕
睟
瓍
嵗
鐆
誶
遀
鐩
氘
忉
纛
瓙
陦
擣
燾
舠
嶌
衜
禂
刂
翿
衟
釖
翢
朷
箌
軇
槝
壔
嶹
隯
椡
艔
魛
隝
躜
纘
纉
鑚
籫
繤
筴
粣
笧
箣
蓛
厠
萴
簎
荝
筞
憡
敇
惻
畟
拺
鲎
糇
骺
篌
睺
瘊
餱
郈
鯸
犼
翭
矦
洉
鱟
鲘
鍭
翵
鮜
豞
裼
荑
鷉
鳀
趧
鶗
綈
趯
騠
軆
稊
悐
殢
蹏
蕛
瓋
碮
髰
鴺
嚔
鍗
鷤
骵
躰
惖
褅
鮷
鮧
苐
擿
禵
罤
銻
鯷
蝭
鶙
謕
楴
朑
瑅
褆
鷈
鬀
洟
拶
臢
鉔
沞
韴
沯
帀
迊
囐
雥
魳
囋
紥
矸
泔
旰
鳡
坩
筸
簳
鱤
粓
鳱
魐
贑
玕
倝
皯
笴
扞
攼
忓
盰
汵
迀
衦
灨
詌
榦
仠
尶
乹
稈
鰔
亁
粋
膵
毳
脺
翆
顇
磪
縗
乼
紣
焠
綷
脃
忰
伜
鏙
疩
皠
趡
胨
鸫
岽
鶇
蝀
笗
箽
鶫
徚
崠
娻
駧
迵
戙
埬
腖
挏
苳
鯟
崬
菄
霘
絧
昸
氭
涷
姛
倲
鮗
垌
諌
泐
饹
仂
鳓
簕
玏
阞
竻
韷
餎
忇
砳
鰳
扐
艻
氻
睃
唢
桫
鮻
髿
鏁
莏
鎈
蜶
褨
簔
惢
鎍
乺
琑
嗩
趖
鎻
簑
暛
溑
锘
儺
郍
橠
稬
糥
懧
糑
蹃
梛
蹀
鲽
垤
绖
眰
褋
瓞
蜨
嵽
牃
疂
苵
氎
昳
峌
幉
殜
镻
戜
眣
艓
胅
疉
挕
耊
鰈
褺
絰
恎
詄
臷
趃
曡
脮
鮾
腇
氝
鯘
錗
杲
菒
祮
鷱
鼛
夰
鋯
皐
鷎
韟
稁
稾
髙
羙
筶
吿
祰
縞
臯
餻
櫜
鍪
蛑
哞
侔
鴾
踎
劺
恈
洠
鉾
麰
瞴
伲
怩
鲵
坭
麑
蜺
聣
貎
嬺
孴
柅
抳
腝
秜
齯
埿
惄
棿
儞
蚭
狔
苨
聻
隬
眤
籾
胒
跜
觬
鯢
誽
鈮
馜
屰
縌
臡
迡
晲
檷
氼
屔
輗
氺
涗
氵
祱
閖
脽
裞
铑
顟
栳
躼
粩
蛯
耢
铹
耮
硓
咾
耂
簩
磱
蟧
轑
珯
嶗
髝
狫
憥
癆
嗠
恅
銠
憦
鐒
朥
窂
澇
僗
橯
軂
鮱
馐
鸺
髹
脙
鵂
褎
褏
螑
鏅
峀
綇
銝
鏥
鎀
繍
臹
珛
苬
鮴
璓
俢
糔
飍
齅
鱃
潃
龇
髭
笫
粢
赀
訾
趑
鲻
鯔
觜
眥
趦
葘
茊
貲
秶
胔
胾
镃
耔
釨
椔
鶅
秄
紎
牸
蓻
鰦
赼
鄑
齍
鈭
輺
錙
杍
荢
茡
緇
頿
姕
崰
矷
玆
乲
璾
頾
訿
禌
澬
胏
輜
吇
稵
芓
鎡
橴
虸
鍿
孶
荛
蕘
隢
橈
嬈
襓
艚
愺
艸
撡
褿
鏪
騲
曺
蠼
劬
诎
黢
鸲
蘧
菃
胠
麹
麯
蝺
胊
誳
闃
翑
鸜
覻
筁
阹
抾
齲
敺
竬
髷
詘
唟
迲
葋
鑺
粬
軥
坥
岴
麮
镼
耝
伹
憈
斪
詓
魼
刞
鰸
籧
淭
鴝
匤
覰
竘
呿
蟝
紶
厺
鱋
岨
佉
浀
螶
鼁
駈
閴
衐
絇
镎
靹
袦
豽
挐
拏
貀
乸
笝
蒳
嗱
魶
鎿
妠
軜
鲠
鯁
鶊
菮
堩
緪
羮
絚
綆
暅
鹒
椩
畊
焿
縆
骾
刯
铧
糀
舙
姡
譮
澅
觟
諣
鋘
釪
杹
芲
錵
諙
黊
鏵
夻
婳
蒊
崋
誮
釫
椛
畵
埖
蘤
撶
鷨
磆
硴
嫿
蕐
繣
婲
螖
蔸
餖
閗
脰
篼
鈄
橷
鬪
吺
阧
乧
酘
鬭
梪
毭
兠
鬦
鬬
唞
阼
稓
筰
椊
葃
繓
糳
秨
鈼
岞
袏
葄
飵
蓙
岝
桷
孓
蹻
钁
觖
觼
蹷
鴃
蕝
芵
駃
覐
泬
刔
瘚
屫
鷢
弡
鴂
瑴
氒
挗
撧
玨
灍
玦
斍
勪
蚗
鐍
殌
蟩
趹
欮
焳
蟨
孒
鶌
爴
砄
鈌
鐝
赽
疦
屩
爑
龣
趉
虳
亅
熦
閷
酾
繺
釃
簁
簛
锊
稤
圙
鋝
畧
擽
鋢
嚒
癦
濹
箧
郄
聺
踥
篋
朅
匧
鯜
籡
緁
藒
蛪
鐑
笡
癿
苆
洯
厒
悏
徭
鳐
轺
珧
艞
靿
闄
飖
窔
祅
窅
餆
詏
岆
軺
讑
烑
磘
眑
傜
愮
抭
榣
纅
颻
訞
柼
嗂
筄
狕
鴁
嶤
穾
獟
峣
鴢
鷕
仸
邎
枖
楆
揺
熎
猺
媱
騕
謡
齩
銚
鷂
嶢
滧
暚
苭
窰
宎
鎐
殀
顤
覞
鰩
尭
袎
茛
搄
揯
髌
玢
豳
镔
邠
鬂
臏
髕
濵
砏
豩
霦
鑌
椕
梹
璸
儐
虨
擯
汃
賔
氞
顮
苎
躅
翥
舳
纻
麈
邾
硃
蠋
跓
麆
钃
窋
疰
詝
竚
紵
蠾
櫧
秼
跦
簗
蝫
鱁
迬
眝
絑
鼄
鮢
嵀
樦
袾
劚
櫫
泏
瘃
罜
霔
羜
曯
駯
殶
笜
筯
茿
莇
煑
紸
笁
砫
斸
鉒
軴
欘
鯺
祩
灟
炢
鋳
孎
濐
鴸
瀦
宔
墸
坾
劯
爥
蠩
馵
磉
鎟
顙
褬
槡
醡
霅
鲊
鲝
痄
齄
觰
蚻
齇
抯
甴
譗
耫
灹
踷
搩
牐
鍘
譇
皶
箚
鮺
皻
鮓
厏
煠
犴
鮟
鶕
貋
韽
盫
錌
儑
洝
玵
誝
豻
峖
雸
鵪
腤
荌
鞌
晻
銨
痷
罯
侒
蓭
馣
歕
瓫
呠
翸
铳
艟
茺
翀
浺
蝩
緟
珫
爞
褈
蹖
肫
窀
衠
綧
訰
稕
宒
迍
凖
迳
肼
鼱
刭
鶄
麖
秔
橸
踁
竧
坕
聙
坙
蟼
巠
婙
妌
竫
汬
亰
桱
梷
鶁
俓
宑
汫
稉
竸
燝
坓
弪
誩
剄
穽
鵛
麠
頚
弳
旍
洳
铷
鳰
顬
帤
筎
醹
袽
桇
鴑
侞
邚
鴽
縟
蝡
蒘
肗
蕠
杁
銣
鱬
嶿
扖
雱
耪
逄
鳑
舽
沗
霶
肨
胮
龎
炐
覫
厐
廛
羼
觇
躔
蒇
冁
繟
鑱
韂
鋋
嘽
摲
鋓
灛
纒
囅
潹
刬
斺
摌
辿
壥
硟
懴
譂
燀
諂
嬋
滻
浐
裧
旵
獑
蕆
閳
鉆
簅
讒
磛
梴
辴
誗
棎
讇
丳
嵼
覘
剗
幝
緾
煘
毚
傖
獊
濸
鸧
欌
鶬
仺
螥
鑶
嵢
賶
艽
敫
蟭
挢
簥
窌
轇
訆
呌
鉸
鵤
烄
灚
憍
茮
峧
笅
晈
湬
敿
芁
撟
趭
挍
櫵
孂
踋
穚
纐
珓
虠
嘂
譑
賋
蟜
鱎
鷮
譥
嘄
煍
撹
燞
臫
嘦
鮫
鷦
嶠
敽
鵁
滘
鐎
徺
恔
悭
慊
肷
搴
椠
鰜
軡
騫
蚈
竏
鹐
鎆
俔
悓
篏
繾
傔
鬜
奷
拑
撁
凵
婜
伣
皘
僉
圲
雃
綪
扲
槧
攑
棈
臤
蜸
汧
壍
檶
騝
岍
圱
鬝
歬
刋
汘
顅
忴
塹
榩
瓩
籖
攐
鏲
騚
鈆
岒
羬
釺
篟
嬱
仱
箞
蔳
鰬
脥
鑓
諐
拪
掔
鈐
孯
灊
欦
粁
櫏
杄
鵮
濳
輤
兛
茾
醌
硱
裈
稛
鹍
褌
裩
鵾
鶤
潉
裍
晜
閸
閫
堒
祵
壸
錕
貇
騉
尡
熴
蜫
瑻
壼
梱
稇
鯤
踔
辵
磭
齪
嚽
鑡
趠
娖
腏
歠
繛
辶
酫
梃
閮
綎
莛
鞓
颋
厛
筳
珽
聼
甼
鼮
邒
蝏
烶
諪
誔
侹
娗
頲
楟
涏
廰
聤
榳
烴
脡
圢
桯
艼
耓
驓
曽
愎
跸
毖
铋
篦
髀
襞
荜
舭
筚
狴
禆
聛
邲
閟
躄
貏
滗
觱
诐
箅
螕
粊
綼
袐
鼊
鲾
蜌
睤
髲
罼
沘
珌
鐴
閇
蹕
柲
枈
坒
縪
毴
馝
弻
潷
鰏
鏎
箆
啚
躃
滭
佊
蓽
彃
襅
夶
疕
駜
魓
笓
梐
贔
貱
鉍
怶
豍
繴
腷
鵖
皕
嬶
粃
熚
畁
饆
榌
韠
鷩
萞
鮅
鷝
疪
妼
鞸
佖
驆
飶
鄪
箄
朼
詖
赑
柀
篳
怭
煏
奰
鄨
幤
鎞
楅
笸
钋
钷
釙
酦
洦
尀
敀
鉕
謈
岶
駊
岥
溌
昢
醗
櫇
桲
鏺
砶
烞
侉
姱
舿
咵
骻
銙
篸
黪
穇
儏
傪
叄
叅
朁
爘
蝅
黲
驂
慙
謲
蠺
迨
呔
骀
绐
轪
艜
鴏
紿
懛
霴
軩
帒
黱
獃
軚
柋
瑇
蹛
垈
蚮
簤
靆
軑
廗
緿
侢
鮘
鸩
畛
胗
轸
鉁
鱵
鎭
絼
酖
紖
眹
鍼
袗
敶
栚
誫
昣
籈
鋴
軫
錱
聄
弫
珎
黰
縥
湞
轃
栕
遉
寊
裖
鬒
抮
殝
挋
酙
甽
纼
塦
萙
靕
鴆
桭
浈
薽
眕
駗
紾
圹
纩
夼
贶
軠
鑛
鵟
眖
黋
邼
筺
砿
誆
貺
忹
劻
誑
爌
軖
軦
岲
洭
纊
匩
壙
懭
懬
絋
軭
儣
穬
狅
昿
恇
鉱
絖
矌
抂
硄
鋛
卝
攵
攴
陠
酺
鯆
烳
鐠
巬
諩
鏷
纀
擈
暜
炇
菐
贌
圤
巭
圑
墣
蒱
檏
沔
眄
靣
緜
矊
黽
汅
葂
蝒
絻
臱
矈
澠
檰
杣
糆
麪
鮸
宀
芇
嬵
丏
騻
鸘
鏯
鷞
艭
欆
孇
縔
驦
觳
岵
煳
瓠
戽
烀
縠
餬
鱯
粐
膴
鳠
魱
虖
鍸
枑
衚
螜
雐
楜
鰗
謼
鸌
汻
虝
嗀
乯
幠
苸
綔
昈
昒
泘
錿
焀
絗
寣
乥
曶
匢
沍
鶦
冱
喖
匫
虍
冴
垀
轷
頀
鳸
鯱
壷
芐
鍙
瀫
乕
嚛
韄
帍
抇
雽
怘
箶
弖
恗
簄
瓳
軤
楛
鵠
頶
朊
緛
耎
輭
撋
瑌
碝
焓
蚶
顸
邗
肣
蔊
筨
魽
螒
駻
閈
莟
鋎
爳
馠
蛿
釬
琀
屽
鶾
谽
豃
虷
嫨
蘫
傼
譀
銲
顄
岾
暵
鋡
闬
頇
睅
熯
皔
晘
厈
凾
梒
蜭
兯
浫
蜬
雗
甝
丆
佄
鬫
圅
涆
檲
摶
褖
槫
鏄
剸
鷒
湪
鷻
漙
煓
貒
篿
慱
粡
秱
蚒
綂
衕
鮦
庝
鉖
鉵
赨
痌
烔
眮
狪
鲖
浵
詷
筩
晍
炵
餇
峂
哃
肜
穃
縙
蠑
嶸
軵
嵤
爃
坈
榵
嬫
烿
茙
毧
髶
宂
穁
駥
螎
褣
狨
巆
羢
褱
蘹
蘾
懐
褢
咶
鞯
謇
硷
裥
篯
趼
鹣
鞬
戋
谫
鵳
枧
葌
鲣
麉
鬋
鰹
鳒
踺
楗
諓
鋻
礀
鐧
瞷
蕳
墹
釼
俴
囏
馢
絸
珔
蕑
鍳
暕
洊
餰
詃
橺
礆
虃
姧
玪
鐗
襇
椾
豜
榗
蠒
弿
譾
鹸
旔
襉
磵
鑯
譼
籛
覸
鹻
袸
韀
熞
轞
襺
寋
梘
瑊
碊
栫
牮
鳽
鶼
鑳
鏩
鑬
劔
韉
筧
戔
睷
螹
劒
豣
臶
挸
礛
鰎
椷
倹
瀐
覵
繝
幵
牋
戩
鐱
擶
劗
蔪
瑐
糋
劎
縑
剱
殱
冿
瀳
藆
賎
趝
謭
鲐
粏
菭
忲
嬯
燤
籉
孡
駘
坮
夳
囼
儓
箈
冭
旲
鮐
舦
罅
硖
鰕
祫
鎋
陜
騢
敮
鶷
縖
疜
圷
陿
縀
珨
舝
蕸
鍜
丅
谺
硤
傄
鎼
閕
疨
翈
梺
夓
炠
碬
赮
乤
筪
煆
虲
閜
颬
鏬
魻
磍
烚
睱
畚
锛
坌
翉
泍
楍
輽
錛
栟
犇
桳
撪
奙
獖
坋
呣
呶
蛲
垴
硇
铙
蟯
譊
堖
峱
憹
碯
怓
碙
夒
鐃
獶
匘
詉
嶩
閙
嫐
踜
碐
薐
輘
烪
艏
鏉
痩
垨
夀
扌
膄
蚬
跣
燹
祆
鹇
铦
粯
筅
韱
藖
鷳
鱻
韅
嫺
鍁
苮
僊
誢
憸
禒
尠
灦
憪
僩
贒
妶
蹮
鑦
誸
豏
鷼
搟
繊
秈
臔
褼
稴
諴
杴
姭
毨
挦
嬐
顕
馦
瀗
礥
鍌
撊
蛝
忺
撏
玁
攇
尟
僴
譣
屳
佡
銛
珗
嶮
鋧
奾
睍
瞯
獮
輱
薟
枮
醎
垷
箲
獫
胘
橌
哯
臽
唌
鶱
蚿
麙
仚
咞
涀
陥
錎
晛
赻
櫶
狝
幰
僲
衘
硍
壏
癎
韯
廯
烍
糮
絤
澖
纎
麲
鼸
鷴
躚
伭
娊
秫
腧
藷
毹
裋
鼡
錰
荗
儵
焂
鱪
蠴
襩
瑹
璹
蒁
絉
毺
跾
攄
鵨
杸
陎
鱰
瀭
竪
鉥
暏
倐
鮛
尗
咰
軗
鏣
怷
虪
踈
綀
疎
鶐
庻
峁
蟊
旄
瞀
蝥
茆
眊
泖
髳
鶜
鄮
覒
柕
楙
蝐
毷
夘
酕
軞
芼
乮
戼
兞
暓
冃
蓩
笷
枆
愗
皃
罞
冐
氂
鄩
纁
訙
紃
樳
鱏
巺
愻
杊
賐
廵
蘍
坃
燖
侚
焄
鱘
蟳
卂
栒
爋
伨
駨
蔒
攳
灥
迿
嚑
噚
毥
潯
燅
殾
薫
塤
稄
鑂
桪
璕
畃
顨
狥
魉
辌
裲
脼
輌
啢
煷
綡
蜽
緉
輬
掚
鍄
魎
貉
薃
皡
譹
諕
皜
椃
薧
澔
顥
秏
皞
昦
竓
恏
聕
茠
鰝
晧
毜
淏
喾
袴
矻
刳
跍
郀
趶
桍
鮬
廤
瘔
秙
焅
狜
扝
嚳
絝
圐
奀
峎
笱
彀
岣
鞲
袧
耈
雊
訽
簼
緱
姤
茩
蚼
覯
耇
玽
芶
韝
褠
坸
耉
豿
邴
竝
鞞
仒
倂
垪
窉
眪
苪
栤
抦
陃
庰
鈵
誁
冫
鋲
靐
餠
傡
鮩
幷
怲
棅
鉼
鞆
蛃
寎
仌
黥
鲭
謦
苘
碃
櫦
葝
儬
硘
棾
靘
檾
靑
夝
廎
濪
殑
甠
暒
鑋
淸
竦
駷
愯
餸
嵷
楤
柗
娀
枩
傱
硹
蜙
鎹
鍶
枀
襂
椮
槮
凔
窻
剏
刱
牀
刅
剙
愴
磢
牎
觯
鸷
帙
贽
踯
骘
彘
轾
踬
忮
阯
蹠
絷
黹
铚
轵
袠
芖
紩
秲
鴲
禃
翐
鑕
騺
跱
阤
膱
胑
衼
祑
聀
馽
瀄
厔
贄
躑
駤
鯯
俧
嬂
夂
坁
懫
螲
锧
汥
茋
坧
洷
迣
禔
劕
樴
祬
鳷
戠
輊
稺
庢
疷
鷙
晊
訨
疐
淽
砋
扻
瓡
櫍
礩
綕
妷
貭
楖
豑
挃
擳
鼅
洔
墆
覟
隲
抧
劧
筫
椥
秷
臸
襧
豸
嗭
慹
倁
釞
騭
漐
秓
憄
馶
軹
觗
軄
旘
縶
廌
驇
汦
娡
蘵
柣
躓
徔
稙
巵
梔
庤
秪
疻
儨
瓆
鴙
垁
帋
扺
怾
秖
犆
畤
蟙
袟
銍
泜
鋕
梽
觶
恉
乿
沚
颃
蚢
迒
垳
貥
苀
頏
笐
筕
魧
絎
斻
绗
吣
锓
螓
骎
駸
鮼
鈙
蠄
誛
赾
唚
撳
斳
靲
藽
寴
笉
鳹
鵭
耹
瀙
搇
菣
菦
顉
鋟
昑
吢
蚙
瘽
抋
庈
綅
螼
坅
鈫
雂
鬵
媇
嶔
珡
琹
梫
镄
鯡
騛
鐨
癈
暃
飝
疿
馡
昲
朏
櫠
蕜
騑
猆
曊
濷
餥
胇
蜰
婔
裶
杮
靅
胐
棐
蟦
靟
芨
赍
芰
齑
笄
殛
虮
鲚
戢
跽
墼
洎
鹡
蹐
罽
韲
穊
鶺
哜
齏
鄿
鯚
虀
觭
臮
踖
鐖
茍
彐
紒
襀
錤
鱀
槣
旡
旣
轚
癪
耤
簊
忣
鷄
彶
齎
鑇
銡
刏
稩
茤
惎
妀
鰿
螏
誋
賫
刉
狤
彑
泲
裚
鳮
郆
穄
嵆
敧
稘
皀
諅
魢
峜
亼
痵
躸
卽
霵
丮
梞
艥
魕
漃
焏
銈
曁
蘎
鱭
覊
亽
坖
姞
廭
伋
鸄
櫅
嚌
雧
齌
叝
檵
穖
賷
鬾
鶏
枅
僟
鍓
犱
雦
箿
璣
樭
鑙
垍
蟣
朞
谻
隮
癠
筓
勣
鞿
薺
蘻
丌
穧
鏶
禨
耭
趌
鵋
喞
鰶
躤
譤
毄
皍
鷑
苌
鬯
鲿
鋹
閶
兏
塲
誯
錩
鱨
甞
椙
仩
裮
韔
锠
鯧
鼚
畼
鏛
瑒
瓺
鋿
蟐
仧
琩
焻
萇
镸
膓
晿
玚
倀
硁
銵
劥
硜
挳
鍞
阬
妔
誙
摼
硻
牼
轱
蛄
嘏
罟
觚
菰
鲴
鯝
笟
鴣
苽
祻
盬
脵
牿
轂
榾
鈷
縎
瀔
餶
棝
糓
羖
蛌
詁
篐
皷
罛
箛
柧
傦
泒
軲
濲
夃
軱
稒
鈲
扢
鶻
鼔
逧
鮕
殍
薸
顠
闝
飃
旚
篻
翲
醥
魒
縹
漴
焋
梉
糚
壵
戇
庒
娤
矬
鹾
脞
斮
虘
鹺
躦
銼
睉
醝
瑳
莡
棤
炝
蜣
戗
锖
錆
蹌
鏹
瑲
墏
椌
艢
蘠
篬
嶈
丬
檣
蹡
繦
嬙
廧
繈
熗
謒
嗴
羻
戧
獇
漒
羫
溬
玱
斨
牄
钭
紏
飳
鍮
黈
敨
緰
偸
妵
綉
亠
蘣
鋀
圪
纥
虼
騔
硌
袼
仡
哿
茖
閤
鴐
裓
轕
臵
謌
鎶
匌
呄
戓
犵
鮯
挌
敋
牱
牫
觡
韚
戨
彁
韐
櫊
諽
佮
肐
鞈
輵
鴚
蛒
鞷
鲀
氽
臋
呑
豘
旽
軘
焞
畽
魨
坉
芚
朜
忳
隹
醊
錣
轛
沝
餟
膇
甀
縋
騅
諈
鵻
鑆
桘
硾
笍
畷
縩
毝
跴
棌
庑
鋈
寤
焐
呒
迕
芴
杌
怃
仵
牾
鼯
鹀
霚
痦
禑
茣
铻
鴮
祦
阢
呉
珸
熃
矹
忢
悞
窹
敄
扤
廡
岉
憮
杇
旿
瑦
躌
屼
碔
螐
誈
騖
璑
洿
珷
奦
雺
汚
潕
窏
啎
鷡
箼
粅
錻
洖
甒
弙
嵨
玝
歍
乄
鰞
橆
伆
溩
譕
鯃
鵐
蟱
鎢
卼
儛
讝
饘
鱣
鳣
驙
譫
飐
覱
琖
醆
驏
嶘
菚
虥
輚
惉
閚
桟
詀
趈
蛅
魙
嶃
轏
颭
旜
枬
飦
氊
譧
黵
虦
鸇
栴
锃
譄
繒
鱛
鋥
蟮
舢
芟
钐
埏
睒
釤
羶
彡
縿
鯅
圸
煔
樿
笘
羴
幓
檆
譱
狦
謆
歚
灗
騸
熌
鐥
挻
銏
脠
潬
覢
椫
嘇
墠
蟺
赸
敾
晱
剼
炶
痁
軕
澘
閊
鱓
邖
聃
箪
赕
瘅
霮
蓞
駳
贉
饏
伔
簞
疍
紞
褝
帎
玬
黮
殫
瓭
泹
僤
刐
亶
衴
窞
耼
鴠
癉
觛
腅
狚
嚪
砃
頕
啗
匰
襌
抌
躭
繵
妉
撣
沊
聸
芤
筘
鷇
宼
瞉
冦
劶
剾
簆
瞘
窛
彄
敂
兙
簰
廹
棑
蒎
鎃
犤
輫
簲
砜
赗
覂
蠭
妦
偑
鳯
碸
鎽
凬
靊
鴌
桻
凮
盽
仹
沨
犎
闏
賵
篈
蘴
檒
煈
凨
綘
僼
霻
溄
夆
猦
焨
麷
飌
鏠
琒
堸
艂
甮
箜
鞚
錓
躻
硿
鵼
铒
鸸
佴
粫
鲕
薾
袻
髵
樲
尒
聏
貮
輀
鴯
鉺
栭
駬
誀
鮞
侕
厼
栮
刵
衈
轜
胹
弍
毦
弐
趰
荋
陑
尓
侪
虿
瘥
袃
茝
蠆
喍
齜
訍
芆
囆
祡
犲
緡
鳘
苠
鈱
簢
盿
潣
痻
慜
琝
刡
笽
錉
垊
砇
僶
旼
鍲
暋
鴖
冺
敯
琘
碈
怋
敃
忞
姄
罠
緍
鰵
笢
蠠
瑉
梻
坲
顑
矙
竷
歁
冚
墈
闞
偘
衎
栞
欿
輡
轗
鞔
颟
鬘
镘
襔
蘰
鬗
鏋
鏝
慲
澷
樠
蔄
矕
姏
縵
顢
睌
祼
鳤
筦
雚
罆
鏆
鑵
琯
闗
覌
窤
丱
輨
躀
遦
悹
瘝
潅
鱹
舘
摜
泴
錧
痯
蒄
毌
鰥
鸛
樌
鱞
泅
鰽
巯
犰
訄
赇
趥
虯
絿
鞧
蛷
銶
訅
秌
蟗
賕
醔
汓
煪
梂
丠
鯄
蘒
肍
扏
龝
穐
鶖
毬
叴
湭
鹙
篍
蠤
釻
玌
恘
蓲
釓
鮂
鰌
盚
皳
釚
緧
觩
殏
巰
蝵
紌
腽
韈
窊
鼃
咓
聉
砙
膃
穵
瓲
屲
韤
劸
攨
畖
邷
胲
駴
饚
咍
烸
塰
餀
嚡
頦
酼
妎
蚴
莸
牖
卣
蝣
蚰
尢
輶
铕
鲉
羑
逌
蜏
鮋
苃
脜
怮
亴
楢
纋
槱
羐
輏
孧
肬
狖
峟
牗
銪
酭
蕕
泑
駀
聈
沋
櫌
蒏
逰
丣
貁
禉
湵
訧
糿
滺
秞
梄
哊
姷
栯
斿
迶
怣
牰
瀀
氚
荈
舡
賗
踳
暷
鶨
瑏
巛
篅
歂
玔
舩
輲
汌
莻
碽
杛
匑
幊
龏
愩
糼
羾
唝
輁
厷
慐
觵
拲
髸
廾
塨
熕
裉
肻
肎
褃
豤
錹
笇
筭
匴
祘
瓧
锼
螋
瞍
鎪
籔
醙
擻
廀
颾
餿
摗
摉
叜
捜
櫢
藪
瘶
騪
洌
趔
鱲
躐
鬛
蛚
鴷
睙
茢
迾
颲
挘
鮤
猟
巤
姴
挒
烮
聗
脟
劽
毟
栵
煭
魋
隤
藬
頺
蹆
駾
弚
尵
蹪
蘈
骽
僓
頽
穨
浞
鷟
椓
硺
篧
彴
撯
梲
汋
諁
圴
擆
斱
斲
鵫
斵
晫
棁
犳
丵
棳
諑
窧
烵
櫡
罬
妰
鐯
鋜
炪
琸
窡
謶
槕
叕
蠿
箓
鸬
胪
舻
轳
栌
辂
垆
簏
鈩
纑
盝
蓾
鏕
粶
簬
騼
櫨
艣
鏀
塷
櫓
曥
瓐
簶
鵱
臚
鑪
虂
峍
鯥
樐
玈
艪
淥
硵
坴
簵
鐪
侓
鵦
轤
籚
椂
騄
錴
攎
磠
獹
甪
瀂
鑥
籙
鸕
螰
醁
壚
魲
黸
舮
稑
硉
髗
矑
氌
觮
嚧
趢
罏
琭
枦
蠦
謢
彔
蹗
澛
睩
穋
踛
圥
鏴
艫
笾
鳊
褊
窆
碥
缏
釆
忭
邉
覍
箯
稨
牑
鴘
鯾
藊
汳
鯿
昪
籩
玣
艑
緶
抃
辧
峅
鍽
辡
獱
閞
甂
糄
炞
砘
遯
蹾
獤
逇
踲
庉
伅
蜳
碷
楯
驐
仉
餦
瞕
粻
鏱
麞
鱆
幥
瘬
痮
涱
騿
蛘
飏
駚
諹
钖
輰
氜
眻
羏
抰
崸
鸉
胦
佒
霷
柍
珜
鴹
暘
紻
姎
阦
坱
雵
颺
岟
敭
蝆
煬
禓
鐊
昜
咉
垟
軮
劷
氱
礢
眏
鍚
鉠
炴
旸
詇
崵
羕
楧
鰑
羪
鲰
楱
齺
赱
棷
鯐
鯫
箃
棸
騶
齱
黀
緅
訢
軐
妡
脪
襑
馸
馫
噺
忄
廞
邤
盺
伩
杺
孞
訫
鐔
嬜
阠
枔
顖
鈊
伈
舋
炘
煗
餪
奻
雠
紬
瘳
雔
裯
栦
儔
犫
魗
椆
怞
杻
讐
侴
篘
皗
嬦
犨
丒
絒
臰
讎
酧
醻
吜
菗
薵
杽
幬
嚋
糨
鳉
耩
洚
螀
鱂
嵹
翞
膙
弜
袶
奨
櫤
匞
繮
杢
畕
畺
醤
茳
夅
謽
摪
韁
葁
糡
螿
顜
赜
昃
舴
迮
箦
礋
謮
昗
捑
夨
嫧
歵
簀
蠌
齚
齰
賾
庂
汄
瞔
樍
諎
蔶
幘
矠
泎
鸅
伬
崱
皟
襗
鏰
镚
絣
綳
逬
伻
閍
琣
祊
痭
鞛
塴
揼
鬊
瞚
蒗
鎯
艆
郞
閬
躴
朤
蜋
誏
筤
唥
桹
硠
郒
斏
朖
勆
駺
鋃
欴
哚
柁
軃
椯
陊
痥
嚲
趓
陏
桗
鮵
亸
毲
凙
敚
畓
敓
刴
鵽
柮
敪
尮
朶
綞
跢
飿
跥
垜
嚉
敠
墯
躱
奲
鈬
饳
夛
挆
挅
甅
歃
閯
翜
鯋
翣
繌
樧
蔱
榝
魦
鎩
粆
桬
毮
箑
硰
乷
儍
箬
鶸
焫
嵶
篛
楉
鰯
鰙
叒
爇
欻
囵
菕
圇
陯
稐
溣
崘
婨
碖
鯩
惀
埨
腀
蜦
磮
錀
踚
掄
棆
耣
嗧
垧
謪
鞝
慯
螪
鑜
尙
丄
漡
鬺
觴
扄
緔
恦
贘
劢
荬
霢
蕒
佅
勱
鷶
衇
嘪
霡
薶
暍
鵺
洂
枽
亪
皣
殗
吔
曅
抴
鋣
礏
墷
餣
鐷
楪
瞱
擫
驜
铘
亱
靨
曗
璍
鸈
潱
鍱
漜
鎁
捓
釾
擨
擪
曵
澲
鎑
嶪
嚈
爗
饁
捙
鄴
嶫
窾
鑧
歀
欵
臗
窽
楺
禸
瓇
騥
韖
鍒
瑈
腬
輮
鰇
鶔
粈
蝚
厹
鏊
聱
鼇
隩
謸
镺
磝
襖
柪
擙
謷
岰
奡
驁
扷
梎
翺
嶴
鷔
翶
垇
芺
媼
軪
抝
欤
龉
饫
鬻
鹆
蜮
窳
肀
窬
伛
蝓
踰
舁
瘐
鴥
貐
頨
鋊
艈
鴪
邘
穻
礜
轝
鴧
軉
諛
砡
鋙
蕍
衧
蓹
銉
斔
兪
棛
齬
棜
謣
扵
褕
嫗
薁
髃
斞
鳿
亐
錥
牏
楡
畭
輍
羭
箊
鯲
龥
桙
忬
鐭
袬
茟
騟
鷠
穥
魊
灪
籅
旟
鍝
玗
鵒
雓
螸
寙
繘
嬩
櫲
秗
艅
伃
杅
茰
飫
扜
焴
俁
歟
礇
圫
霱
陓
鰅
懙
硢
礖
祤
歶
盓
篽
蜟
喅
棫
悆
硲
鱊
鸆
迃
芌
欎
罭
澦
蘛
娯
欝
楰
旕
紆
鸒
睮
麌
喐
瘉
乻
緎
璵
驈
鷸
傴
儥
爩
稶
鬰
楀
醧
琙
挧
戫
鮽
澚
虶
敔
歈
稢
饇
蕷
芏
黩
碡
髑
椟
覩
讟
韥
鑟
瓄
豄
騳
螙
黷
嬻
凟
皾
牘
蝳
贕
醏
妬
涜
琽
秺
韇
裻
韣
厾
錖
殬
荰
蠧
殰
櫝
匵
誒
勰
瀣
榍
躞
绁
龤
藛
韰
絏
齛
缷
禼
纈
旪
瑎
屧
卨
灺
屓
絬
祄
齥
蠏
蝢
糏
峫
綊
炧
褉
僁
夑
炨
暬
猲
齘
脋
紲
讗
齂
擕
噧
襭
衺
緤
翓
烲
繲
垥
劦
伳
緳
焎
鞢
奊
燲
鞵
拹
恊
爕
箖
麐
粦
驎
鏻
痳
翷
懍
厸
斴
廩
瀶
碄
恡
焛
悋
澟
壣
蹸
轥
繗
藺
閵
癛
轔
檁
晽
躙
崊
瓰
簺
嗮
毢
顋
毸
鞥
鬈
筌
畎
鳈
鰁
踡
辁
絟
硂
韏
駩
棬
綣
峑
弮
奍
闎
騡
犈
洤
牷
輇
搼
椦
烇
瑔
牶
犭
觠
姾
跧
汱
恮
楾
縓
鐉
齤
诔
酹
磥
絫
蕌
鑸
纇
讄
厽
鑘
轠
壨
頪
颣
銇
蘱
靁
塁
誄
錑
鱩
腂
縲
頛
鸓
鼺
蘽
矋
纝
洡
畾
禷
瑖
腶
鍴
躖
簖
毈
籪
褍
碫
鰠
螦
鳋
掻
騒
繅
髞
鱢
黁
戥
櫈
朩
艠
豋
鐙
覴
譖
囎
譛
畈
蹯
訉
軓
鐇
繙
盕
鷭
嬎
羳
旛
棥
凢
瀪
柉
笵
緐
匥
颿
飜
軬
凣
滼
笲
薠
舧
渢
籵
奿
轓
飰
鱕
杋
忛
鐢
舤
釩
妁
箾
矟
鎙
獡
鑠
鼂
耖
謿
鼌
焣
仯
仦
觘
眧
窲
怊
罺
欩
牊
訬
巣
弨
轈
魃
鲅
鲃
岜
鲌
菝
鮊
茇
釛
釟
軷
丷
蚆
颰
癹
跁
叐
垻
紦
犮
炦
巼
朳
魞
欛
妭
墢
仈
矲
坺
玐
詙
豝
胈
夿
弝
羓
柭
镟
譞
蕿
蜁
翧
衒
袨
縼
鍹
蝖
梋
怰
翾
眴
蘐
睻
贙
琁
鋗
駽
鰚
吅
琄
碹
讂
諠
咺
蓒
箮
玹
昡
鞙
繏
鏇
蠉
諼
楥
藼
晅
烜
顈
颴
痃
禤
縇
昍
噷
魈
枵
哓
鸮
翛
膮
詨
謏
虈
硣
痟
穘
蠨
恷
焇
蟏
毊
筿
櫹
獢
灲
嘨
皛
鴵
嘵
髐
痚
藃
萷
綃
歗
敩
彇
踃
鴞
窙
誵
斆
蟰
俲
殽
鷍
髇
灱
斅
暁
洨
揱
蟂
嚻
呺
誟
簘
熽
訤
皢
憢
铥
銩
苤
氕
鐅
锾
鲩
驩
郇
轘
睆
藧
絙
貛
萈
鯇
繯
綄
愌
峘
鉮
鯶
寏
鴅
烉
鰀
瓛
糫
雈
瑍
豲
狟
荁
羦
闤
攌
貆
鵍
梙
犿
鐶
肒
艨
瞢
甍
鄳
儚
冡
鯍
鸏
鯭
蝱
鼆
顭
蕄
鄸
饛
橗
甿
霥
懜
瓾
夣
莔
蘉
霿
靀
擝
蕰
璺
顐
闅
鳁
辒
閺
閿
殟
饂
彣
脗
榅
螡
轀
肳
珳
昷
魰
鳼
馼
芠
匁
駇
鴍
鰛
渂
輼
瘒
榲
呚
瑥
桽
豱
闦
鞰
呡
忟
妏
揾
鎾
穏
鰮
炆
蚉
蟁
缻
妚
鴀
雬
裦
紑
殕
缹
庋
妫
匦
宄
刿
鱖
鳜
邽
簋
螝
鱥
膭
祪
禬
袿
鬶
癐
佹
槼
瞡
蛫
摫
垝
巂
嫢
璝
姽
攰
騩
筀
劌
鬹
瞶
厬
茥
攱
蟡
昋
朹
郌
鞼
媯
櫷
簂
槶
匭
撌
陒
庪
襘
恑
觤
氿
椝
嬀
椢
胿
袢
襻
鋬
跘
眅
詊
縏
鞶
瀊
洀
聁
溿
鎜
鑻
畨
爿
沜
冸
鵥
頖
牉
炍
艖
蹅
詧
鍤
肞
臿
鑔
奼
餷
秅
紁
疀
挿
銟
垞
扠
鲗
蠈
戝
鰂
鱡
芿
辸
硪
肟
踒
腛
齷
濣
猧
楃
焥
瞃
仴
撾
蟛
閛
纄
韼
髼
踫
稝
椖
蟚
輣
錋
磞
騯
鬅
竼
匉
梈
樥
硑
蘕
軯
篣
恲
鑝
皏
韸
鬔
挷
棼
膹
蕡
翂
鲼
岎
豮
豶
躮
濆
轒
瀵
衯
馚
哛
炃
幩
訜
鱝
枌
蒶
妢
弅
蚠
僨
蚡
馩
燌
隫
肦
朌
羒
棻
昐
羵
餴
饙
帉
橨
竕
鈖
鐼
兺
黂
魵
梤
秎
兝
龆
粜
祧
蓚
髫
鲦
蜩
鞗
鰷
蓨
鋚
鎥
芀
岧
螩
庣
齠
祒
宨
朓
樤
鯈
脁
萔
誂
恌
窱
岹
趒
糶
斢
覜
旫
絩
聎
艄
蛸
潲
袑
睄
卲
綤
旓
蕱
鮹
柖
髾
輎
玿
颵
鋆
恽
郓
狁
藴
赟
贇
蒷
馧
縕
筼
腪
頵
緷
醖
薀
韗
蝹
抎
喗
鈗
囩
氳
縜
蕓
秐
奫
霣
橒
齫
耺
鄖
鄆
緼
賱
枟
荺
褞
煴
阭
沄
抣
篔
傊
繧
夽
溳
澐
熉
慍
熅
韞
磒
馻
愪
眃
蒕
畇
餫
齳
惲
蛩
跫
銎
筇
茕
藭
蛬
赹
竆
睘
笻
熍
宆
憌
卭
焭
舼
瞏
焪
儝
桏
橩
煢
卛
啂
譳
鐞
鎒
艿
柰
釢
螚
褦
嬭
廼
錼
耏
腉
孻
渿
疓
砹
锿
騃
鴱
靉
鑀
薆
譪
硋
嬡
敳
馤
瞹
噯
伌
譺
餲
凒
鱫
鎄
皧
僾
懓
敱
璦
毐
溰
躷
銰
腚
玎
耵
虰
饤
椗
帄
聢
鐤
萣
鋌
奵
顁
嵿
矴
蝊
忊
飣
碠
粺
贁
栢
絔
粨
竡
挀
韛
拝
庍
瓸
薭
闶
钪
鱇
鈧
閌
忼
摃
砊
穅
躿
粇
邟
犺
囥
匟
嵻
鏮
钍
鋵
酴
鶟
鍎
稌
莵
汢
筡
宊
鼵
駼
鵚
怢
痜
嵞
迌
馟
鷋
涋
鵌
梌
蒤
圕
釷
圗
鈯
圡
鷵
跿
腯
兎
鵵
瘏
嵾
笒
梣
颏
岢
髁
疴
锞
砢
艐
钶
趷
薖
騍
翗
愙
匼
軻
尅
渇
鈳
犐
胢
牁
醘
敤
萪
嵙
緙
炣
碦
樖
礚
錒
聩
岿
跬
蝰
聭
頍
瞆
顝
籄
闚
聵
聧
樻
謉
鑎
戣
嘳
蕢
楏
蘬
蹞
藈
簣
鍷
腃
嬇
鍨
晆
欳
騤
櫆
尯
鐀
楑
巋
煃
虁
餽
刲
憒
頄
頯
镏
鹨
旒
锍
蹓
镠
鰡
罶
駵
鏐
霤
鐂
飂
鬸
嬼
沠
磂
鹠
畄
翏
懰
橮
磟
飀
麍
蟉
畱
疁
鋶
鎦
藰
蓅
鷚
桞
羀
驑
綹
栁
珋
旈
鶹
駠
裗
嚠
瑬
畂
飅
雡
桺
騮
钔
璊
懣
菛
捫
玧
閅
鍆
暪
椚
虋
锝
脦
悳
棏
惪
恴
淂
鍀
钌
尥
豂
蹽
飉
窷
膋
蹘
尦
蟟
尞
叾
爒
镽
屪
敹
鐐
廫
釕
藔
炓
簝
曢
賿
髎
鷯
爎
譟
趮
煰
簉
慥
栆
竃
蹧
艁
繰
竈
喿
皁
唕
醩
梍
薻
垡
茷
瞂
彂
笩
鍅
姂
佱
疺
傠
藅
蕟
醱
浌
罸
栰
橃
灋
簟
阽
坫
齻
蜔
琔
蒧
攧
猠
蹎
嚸
顚
敟
扂
椣
瘨
驔
奌
巓
跕
敁
蕇
囖
鐓
祋
薱
譵
痽
懟
兊
嵟
綐
瀩
鐜
頧
襨
譈
濧
磓
鴭
垖
蛞
霩
筈
髺
葀
頢
韕
鬠
桰
挄
鞹
濶
懖
鞟
胩
佧
垰
鉲
衉
裃
螈
眢
鈨
箢
贠
鹓
蝝
黿
肙
蜎
鶢
蚖
鼝
薗
笎
嬽
褑
騵
盶
謜
邧
厵
鼘
囦
駌
逺
裫
裷
蜵
魭
貟
鶰
杬
棩
羱
夗
妴
褤
衏
茒
酛
圎
蝯
鋺
鎱
鵷
禐
灁
渁
邍
櫞
蒬
贆
飑
磦
檦
骉
褾
飇
脿
諘
颩
颷
猋
謤
飊
瘭
飈
颮
驫
滮
爂
驃
曩
譨
乪
饢
鬞
嚢
擃
齉
阄
桕
紤
鬏
鬮
匓
欍
糺
揫
廏
鯦
乣
柾
匶
麔
乆
萛
杦
廐
勼
朻
丩
牞
舏
齨
汣
廄
匛
慦
奺
郃
翮
饸
盇
鲄
鞨
詥
袔
粭
鶡
翯
覈
鹖
靎
咊
焃
齕
惒
鶮
貈
渮
碋
秴
癋
籺
魺
篕
煂
楁
靏
欱
鸖
鉌
螛
訸
毼
佫
謞
敆
蠚
澕
姀
輅
穒
紇
抲
狢
垎
靍
峆
鑉
盉
鲧
謴
鮌
睔
緄
輥
蔉
璭
鯀
睴
衽
轫
訒
讱
袵
餁
鵀
秹
魜
纴
軔
祍
岃
梕
牣
仭
躵
芢
刄
屻
鈓
銋
綛
忎
忈
棯
紝
秂
腍
姙
扨
杒
絍
肕
朲
亻
邙
硭
铓
駹
蠎
漭
笀
恾
茻
硥
吂
釯
痝
牻
鋩
尨
杗
蛖
汒
牤
杧
壾
膪
钆
尜
玍
錷
魀
蠙
嚬
矉
琕
礗
馪
驞
薲
穦
玭
汖
顰
醸
镆
貊
瘼
靺
糢
瞐
眜
嚩
砞
魹
饃
懡
絈
嫼
怽
髍
湐
尛
庅
粖
黙
歿
鏌
圽
劰
魩
歾
莈
妺
纆
帓
貃
蛨
饝
瞙
枺
蟔
眿
帞
唜
眽
昩
謩
銆
橅
皌
铫
铞
訋
窎
窵
殦
瘹
鮉
扚
竨
鋽
虭
琱
魡
汈
蛁
瞗
簓
蓧
雿
鈟
伄
銱
刟
鑃
徂
殂
顣
麤
踧
脨
誎
瘄
縬
趗
蹵
瘯
觕
鼀
眚
賸
蕂
苼
狌
焺
憴
譝
陹
貹
栍
橳
鍟
鵿
榺
珄
泩
阩
殅
鉎
剰
曻
呏
竔
斘
枡
琞
墭
蛉
鸰
袊
舲
跉
笭
柃
竛
昤
狑
爧
霗
皊
龗
衑
琌
鴒
蓤
坽
姈
祾
夌
霝
朎
刢
紷
彾
阾
岺
裬
鯪
鹷
蔆
炩
魿
錂
砱
瀮
秢
霛
駖
欞
軨
麢
閝
詅
窸
翕
穸
欷
隰
谿
觋
豨
舄
鼷
郋
鸂
觿
豀
雟
衋
鳛
觽
糦
盻
騽
霫
鏭
葈
椞
屭
覀
渓
戱
琋
椺
稧
焈
凞
肹
鬩
貕
赥
怸
翖
釸
咥
壐
犔
綌
枲
磎
瘜
鱚
熂
墍
焬
緆
躧
恄
飁
怬
謑
矖
橲
欯
繥
燨
忥
徆
蹝
呬
鉩
虩
嚱
鎴
舃
霼
焟
肸
鈢
睎
桸
卌
嶲
蟢
諰
鑴
趘
赩
闟
螇
豯
扸
惁
驨
縘
卥
匸
騱
橀
覡
趇
滊
覤
恓
鉨
餼
鯑
隵
鵗
釳
澙
忚
饻
餏
謵
邜
焁
巇
礂
熈
犠
氥
鰼
觹
屃
晳
譆
縰
蘅
鸻
脝
悙
鴴
鑅
鵆
胻
涥
烆
糁
毵
鬖
鏾
弎
壭
仐
犙
鏒
厁
糂
閐
毶
橵
毿
糝
糤
糣
帴
繖
饊
蹨
蹍
鵇
躎
姩
秊
哖
鮎
輦
攆
艌
秥
跈
卄
焾
簐
赉
铼
鶆
騋
賚
襰
癩
鯠
麳
顂
琜
藾
淶
櫴
錸
庲
鵣
梾
逨
郲
箂
唻
猍
筙
崍
棶
倈
婡
钹
鹁
髆
駮
踣
镈
袚
鮁
箥
砵
餺
艊
帗
盋
肑
驋
鑮
袯
袹
苩
鈸
溊
鉢
胉
紴
萡
袰
豰
鋍
碆
犻
秡
鵓
馞
餑
髉
鱍
仢
馛
瓟
蹳
狛
襏
譒
糪
簙
鎛
癶
瓝
癷
鳎
闼
趿
铊
鰨
溻
遝
闒
蹹
禢
鞜
毾
狧
嚃
墖
侤
褟
錔
橽
咜
濌
榙
譶
躢
闥
澾
闧
搨
誻
鮙
嚺
鞳
